{
  "version": "1.0",
  "truncation": null,
  "padding": null,
  "added_tokens": [
    {
      "id": 0,
      "content": "[PAD]",
      "single_word": false,
      "lstrip": false,
      "rstrip": false,
      "normalized": false,
      "special": true
    },
    {
      "id": 1,
      "content": "[UNK]",
      "single_word": false,
      "lstrip": false,
      "rstrip": false,
      "normalized": false,
      "special": true
    },
    {
      "id": 2,
      "content": "[CLS]",
      "single_word": false,
      "lstrip": false,
      "rstrip": false,
      "normalized": false,
      "special": true
    },
    {
      "id": 3,
      "content": "[SEP]",
      "single_word": false,
      "lstrip": false,
      "rstrip": false,
      "normalized": false,
      "special": true
    },
    {
      "id": 4,
      "content": "[MASK]",
      "single_word": false,
      "lstrip": false,
      "rstrip": false,
      "normalized": false,
      "special": true
    }
  ],
  "normalizer": {
    "type": "NFKC"
  },
  "pre_tokenizer": {
    "type": "BertPreTokenizer"
  },
  "post_processor": {
    "type": "TemplateProcessing",
    "single": [
      {
        "SpecialToken": {
          "id": "[CLS]",
          "type_id": 0
        }
      },
      {
        "Sequence": {
          "id": "A",
          "type_id": 0
        }
      },
      {
        "SpecialToken": {
          "id": "[SEP]",
          "type_id": 0
        }
      }
    ],
    "pair": [
      {
        "SpecialToken": {
          "id": "[CLS]",
          "type_id": 0
        }
      },
      {
        "Sequence": {
          "id": "A",
          "type_id": 0
        }
      },
      {
        "SpecialToken": {
          "id": "[SEP]",
          "type_id": 0
        }
      },
      {
        "Sequence": {
          "id": "B",
          "type_id": 0
        }
      },
      {
        "SpecialToken": {
          "id": "[SEP]",
          "type_id": 0
        }
      }
    ],
    "special_tokens": {
      "[CLS]": {
        "id": "[CLS]",
        "ids": [
          2
        ],
        "tokens": [
          "[CLS]"
        ]
      },
      "[SEP]": {
        "id": "[SEP]",
        "ids": [
          3
        ],
        "tokens": [
          "[SEP]"
        ]
      }
    }
  },
  "decoder": null,
  "model": {
    "type": "Unigram",
    "unk_id": 1,
    "vocab": [
      [
        "[PAD]",
        0.0
      ],
      [
        "[UNK]",
        0.0
      ],
      [
        "[CLS]",
        0.0
      ],
      [
        "[SEP]",
        0.0
      ],
      [
        "[MASK]",
        0.0
      ],
      [
        ",",
        -3.0590070350673706
      ],
      [
        "。",
        -3.2372302519050553
      ],
      [
        "的",
        -3.2495186818894215
      ],
      [
        "和",
        -4.46353541031718
      ],
      [
        "—",
        -4.546911733850646
      ],
      [
        "在",
        -4.666179534759339
      ],
      [
        "、",
        -5.092041000447345
      ],
      [
        "了",
        -5.1166231324973115
      ],
      [
        "是",
        -5.129407871162938
      ],
      [
        "(",
        -5.4784200354214825
      ],
      [
        ")",
        -5.479486133602645
      ],
      [
        "对",
        -5.502860028866127
      ],
      [
        "而",
        -5.564859960195918
      ],
      [
        "但",
        -5.587917303628373
      ],
      [
        "“",
        -5.633386339609334
      ],
      [
        "”",
        -5.646822351569893
      ],
      [
        "将",
        -5.701380709756442
      ],
      [
        "中",
        -5.726407095692434
      ],
      [
        "不",
        -5.734444901950642
      ],
      [
        "为",
        -5.837234915374493
      ],
      [
        "美国",
        -5.860844316314662
      ],
      [
        "有",
        -5.887516227643978
      ],
      [
        "也",
        -5.944029018628298
      ],
      [
        "人",
        -5.998017937619151
      ],
      [
        "中国",
        -6.023661431001685
      ],
      [
        "与",
        -6.050088377388455
      ],
      [
        "其",
        -6.142738281701069
      ],
      [
        "我们",
        -6.157028796309165
      ],
      [
        "政府",
        -6.17991772448662
      ],
      [
        "地",
        -6.197906497672985
      ],
      [
        "%",
        -6.206309184692154
      ],
      [
        "这",
        -6.206444330341755
      ],
      [
        "欧洲",
        -6.215446360633292
      ],
      [
        "上",
        -6.2173458226228835
      ],
      [
        "他们",
        -6.228076611186502
      ],
      [
        "国家",
        -6.235650813291587
      ],
      [
        "会",
        -6.247569842397144
      ],
      [
        "经济",
        -6.249775631230397
      ],
      [
        "从",
        -6.250627607079402
      ],
      [
        "以",
        -6.260250283021968
      ],
      [
        "被",
        -6.267078413275904
      ],
      [
        "大",
        -6.277234350114773
      ],
      [
        "来",
        -6.280402858965617
      ],
      [
        "一个",
        -6.315933609531097
      ],
      [
        "并",
        -6.357260507304833
      ],
      [
        "一",
        -6.375853226074369
      ],
      [
        ":",
        -6.377639317470983
      ],
      [
        "这一",
        -6.397270151978663
      ],
      [
        "性",
        -6.3997238069459055
      ],
      [
        "都",
        -6.399737422715173
      ],
      [
        ";",
        -6.403442533334314
      ],
      [
        "到",
        -6.408735386168104
      ],
      [
        "所",
        -6.414282512857939
      ],
      [
        "已经",
        -6.429319110013289
      ],
      [
        "就",
        -6.432743382637204
      ],
      [
        "可以",
        -6.43356320411605
      ],
      [
        "这些",
        -6.4649868744720855
      ],
      [
        "·",
        -6.47955380696385
      ],
      [
        "更",
        -6.49224675673125
      ],
      [
        "以及",
        -6.505764730367012
      ],
      [
        "让",
        -6.51800546282694
      ],
      [
        "问题",
        -6.557018797274784
      ],
      [
        "时",
        -6.564811525680474
      ],
      [
        "他",
        -6.570021230561313
      ],
      [
        "它",
        -6.605228074738601
      ],
      [
        "如果",
        -6.638867352333339
      ],
      [
        "欧盟",
        -6.654530255106021
      ],
      [
        "者",
        -6.657920434470336
      ],
      [
        "新",
        -6.664075628550263
      ],
      [
        "因为",
        -6.669033397876429
      ],
      [
        "需要",
        -6.672613990289863
      ],
      [
        "政策",
        -6.684775470203668
      ],
      [
        "可能",
        -6.685577444150502
      ],
      [
        "全球",
        -6.698519593909463
      ],
      [
        "后",
        -6.701537982389885
      ],
      [
        "或",
        -6.716496870578224
      ],
      [
        "但是",
        -6.723426817919777
      ],
      [
        "要",
        -6.734636876166002
      ],
      [
        "政治",
        -6.753814154671194
      ],
      [
        "比",
        -6.773175663957596
      ],
      [
        "世界",
        -6.7908499089121825
      ],
      [
        "因此",
        -6.799582614056988
      ],
      [
        "必须",
        -6.801390416937352
      ],
      [
        "?",
        -6.80506745810695
      ],
      [
        "于",
        -6.823467282218664
      ],
      [
        "能",
        -6.823964781049929
      ],
      [
        "增长",
        -6.824893151348776
      ],
      [
        "向",
        -6.830283915246042
      ],
      [
        "高",
        -6.841719491756916
      ],
      [
        "没有",
        -6.849153212635845
      ],
      [
        "说",
        -6.8540233733843925
      ],
      [
        "最",
        -6.861452815754067
      ],
      [
        "市场",
        -6.871209966706887
      ],
      [
        "下",
        -6.877484990116468
      ],
      [
        ".",
        -6.87851578486452
      ],
      [
        "年",
        -6.888135277274748
      ],
      [
        "用",
        -6.89306160281495
      ],
      [
        "无",
        -6.907377577795097
      ],
      [
        "通过",
        -6.908960642491711
      ],
      [
        "应该",
        -6.916924951184496
      ],
      [
        "出",
        -6.930524315041686
      ],
      [
        "国",
        -6.931728699499847
      ],
      [
        "银行",
        -6.947844440270781
      ],
      [
        "之",
        -6.949404445087984
      ],
      [
        "我",
        -6.967785280835818
      ],
      [
        "它们",
        -6.970130756032537
      ],
      [
        "还",
        -6.971706253575043
      ],
      [
        "尔",
        -6.974879155745842
      ],
      [
        "投资",
        -6.984688855806008
      ],
      [
        "认为",
        -6.986871392493879
      ],
      [
        "前",
        -6.998784836648408
      ],
      [
        "当",
        -7.00090848939815
      ],
      [
        "支持",
        -7.004060787666979
      ],
      [
        "多",
        -7.0175768319174
      ],
      [
        "着",
        -7.050525063177267
      ],
      [
        "尽管",
        -7.063000440375019
      ],
      [
        "正在",
        -7.073894238653116
      ],
      [
        "能够",
        -7.075097586678648
      ],
      [
        "计划",
        -7.081052700027385
      ],
      [
        "包括",
        -7.084157198121118
      ],
      [
        "进行",
        -7.096658821249828
      ],
      [
        "现在",
        -7.097857438769951
      ],
      [
        "等",
        -7.100261339463463
      ],
      [
        "事实上",
        -7.10750226918116
      ],
      [
        "过",
        -7.119280858343856
      ],
      [
        "国际",
        -7.125165891485951
      ],
      [
        "把",
        -7.13202134410929
      ],
      [
        "印度",
        -7.134272968955773
      ],
      [
        "德国",
        -7.135866493204983
      ],
      [
        "无法",
        -7.146959881377221
      ],
      [
        "给",
        -7.154914735429271
      ],
      [
        "斯",
        -7.159179970256676
      ],
      [
        "希腊",
        -7.161299323018077
      ],
      [
        "实现",
        -7.163929646880569
      ],
      [
        "其他",
        -7.190385245613641
      ],
      [
        "里",
        -7.1904565225849675
      ],
      [
        "债务",
        -7.191743965237308
      ],
      [
        "危机",
        -7.193167831189309
      ],
      [
        "1",
        -7.195971026019463
      ],
      [
        "发展",
        -7.1960385389681445
      ],
      [
        "开始",
        -7.196890984304729
      ],
      [
        "-",
        -7.200092629933546
      ],
      [
        "却",
        -7.209035738851682
      ],
      [
        "人们",
        -7.212168170008144
      ],
      [
        "英国",
        -7.219078910241879
      ],
      [
        "这种",
        -7.219663799593624
      ],
      [
        "社会",
        -7.221392577427221
      ],
      [
        "增加",
        -7.22234347701403
      ],
      [
        "化",
        -7.222630990928569
      ],
      [
        "影响",
        -7.224853959574873
      ],
      [
        "改革",
        -7.234034928309224
      ],
      [
        "成为",
        -7.24888308323769
      ],
      [
        "公司",
        -7.255632839777614
      ],
      [
        "由",
        -7.258950236869009
      ],
      [
        "自",
        -7.266976957780278
      ],
      [
        "可",
        -7.26948018671374
      ],
      [
        "机构",
        -7.27037561685411
      ],
      [
        "提供",
        -7.271705397719811
      ],
      [
        "要求",
        -7.272532580239235
      ],
      [
        "许多",
        -7.273108210876519
      ],
      [
        "得",
        -7.2810311505079754
      ],
      [
        "该",
        -7.284150824459119
      ],
      [
        "使",
        -7.287922510483674
      ],
      [
        "那些",
        -7.304551447022378
      ],
      [
        "解决",
        -7.307048210758724
      ],
      [
        "所有",
        -7.313782809393461
      ],
      [
        "力",
        -7.31909054267526
      ],
      [
        "3",
        -7.3242708150259945
      ],
      [
        "一些",
        -7.3255789068755375
      ],
      [
        "地区",
        -7.3271819309554
      ],
      [
        "企业",
        -7.338214305352261
      ],
      [
        "风险",
        -7.3413672924139
      ],
      [
        "那么",
        -7.34253416213749
      ],
      [
        "安全",
        -7.349923192830595
      ],
      [
        "2",
        -7.35315210297591
      ],
      [
        "货币",
        -7.3760856254441185
      ],
      [
        "日本",
        -7.387990964398696
      ],
      [
        "小",
        -7.389577197831487
      ],
      [
        "拉",
        -7.392004861145609
      ],
      [
        "这个",
        -7.39523868285916
      ],
      [
        "获得",
        -7.40044216220936
      ],
      [
        "好",
        -7.40228143573253
      ],
      [
        "民主",
        -7.406633418027979
      ],
      [
        "收入",
        -7.407283205839368
      ],
      [
        "金融",
        -7.409543461509482
      ],
      [
        "e",
        -7.413478836505369
      ],
      [
        "内",
        -7.418729425930961
      ],
      [
        "5",
        -7.423159982174632
      ],
      [
        "低",
        -7.424977849198036
      ],
      [
        "作为",
        -7.427578281417403
      ],
      [
        "及",
        -7.428187490503393
      ],
      [
        "则",
        -7.4332129997719365
      ],
      [
        "任何",
        -7.436085560381703
      ],
      [
        "导致",
        -7.439614336787895
      ],
      [
        "方面",
        -7.440473070080965
      ],
      [
        "又",
        -7.465783194516591
      ],
      [
        "家",
        -7.466221967974307
      ],
      [
        "而且",
        -7.468838090689502
      ],
      [
        "如此",
        -7.4762374574377155
      ],
      [
        "德",
        -7.478958719241982
      ],
      [
        "日",
        -7.480625677675835
      ],
      [
        "目标",
        -7.481997346900735
      ],
      [
        "并且",
        -7.4830847799419935
      ],
      [
        "此外",
        -7.484143825148799
      ],
      [
        "贸易",
        -7.487779317866789
      ],
      [
        "比如",
        -7.490160829040163
      ],
      [
        "伊朗",
        -7.49476611736313
      ],
      [
        "特",
        -7.496445894963079
      ],
      [
        "俄罗斯",
        -7.496937798007997
      ],
      [
        "国内",
        -7.4974818352115875
      ],
      [
        "欧元区",
        -7.504424989546668
      ],
      [
        "起",
        -7.505622771596569
      ],
      [
        "&",
        -7.514591838906949
      ],
      [
        "如今",
        -7.514981941084325
      ],
      [
        "自己",
        -7.516327529908406
      ],
      [
        "a",
        -7.5167724857214875
      ],
      [
        "长期",
        -7.518230643283226
      ],
      [
        "更加",
        -7.519730541263843
      ],
      [
        "正",
        -7.5223969743072345
      ],
      [
        "技术",
        -7.5281698031626805
      ],
      [
        "法国",
        -7.536057319352881
      ],
      [
        "甚至",
        -7.537561312294381
      ],
      [
        "就是",
        -7.538099730100422
      ],
      [
        "这样的",
        -7.540545753405023
      ],
      [
        "去",
        -7.541992894152918
      ],
      [
        "点",
        -7.56014570411877
      ],
      [
        "们",
        -7.562426271109243
      ],
      [
        "领导人",
        -7.5660332052709105
      ],
      [
        "工作",
        -7.573175914124821
      ],
      [
        "权",
        -7.576617053855466
      ],
      [
        "对于",
        -7.578222548126135
      ],
      [
        "已",
        -7.578861872396097
      ],
      [
        "名",
        -7.582424233983632
      ],
      [
        "来说",
        -7.582951880399714
      ],
      [
        "最近",
        -7.585244909005391
      ],
      [
        "选择",
        -7.585315535974572
      ],
      [
        "希望",
        -7.585317105751094
      ],
      [
        "结果",
        -7.5990734617205025
      ],
      [
        "法",
        -7.59939047386171
      ],
      [
        "目前",
        -7.5995482810987
      ],
      [
        "只有",
        -7.603890342890804
      ],
      [
        "继续",
        -7.604340026511814
      ],
      [
        "受",
        -7.6053840461027375
      ],
      [
        "的国家",
        -7.606066760194956
      ],
      [
        "组织",
        -7.608783602845303
      ],
      [
        "个",
        -7.611406431585786
      ],
      [
        "实施",
        -7.6176772196261515
      ],
      [
        "量",
        -7.620941463216508
      ],
      [
        "最终",
        -7.626231385897013
      ],
      [
        "合作",
        -7.633871336964829
      ],
      [
        "总统",
        -7.634123723443555
      ],
      [
        "决定",
        -7.634860761978476
      ],
      [
        "并不",
        -7.63810422105478
      ],
      [
        "主要",
        -7.640535294065542
      ],
      [
        "非",
        -7.645656300763848
      ],
      [
        "似乎",
        -7.646937394519344
      ],
      [
        "能源",
        -7.648050368952996
      ],
      [
        "以来",
        -7.65180019535237
      ],
      [
        "重",
        -7.654456067697509
      ],
      [
        "亚洲",
        -7.6546141377230645
      ],
      [
        "主义",
        -7.6563834777334385
      ],
      [
        "7",
        -7.658896674349392
      ],
      [
        "像",
        -7.66639822610422
      ],
      [
        "定",
        -7.66680000370529
      ],
      [
        "研究",
        -7.666828513446036
      ],
      [
        "C",
        -7.66928713618127
      ],
      [
        "使用",
        -7.671893224518277
      ],
      [
        "控制",
        -7.672689794302908
      ],
      [
        "克",
        -7.673635725169119
      ],
      [
        "一种",
        -7.674165804714318
      ],
      [
        "如何",
        -7.674698260104718
      ],
      [
        "存在",
        -7.676008647181962
      ],
      [
        "A",
        -7.681918352626074
      ],
      [
        "美元",
        -7.682469711340601
      ],
      [
        "拥有",
        -7.684152351559313
      ],
      [
        "利",
        -7.685250286684459
      ],
      [
        "如",
        -7.687952600760514
      ],
      [
        "4",
        -7.688014545228599
      ],
      [
        "协议",
        -7.688242058626932
      ],
      [
        "保护",
        -7.6894683552956415
      ],
      [
        "发生",
        -7.690517245278621
      ],
      [
        "重要",
        -7.694406545736125
      ],
      [
        "行",
        -7.6954163419145285
      ],
      [
        "环境",
        -7.696681394295455
      ],
      [
        "不是",
        -7.696734776902845
      ],
      [
        "或者",
        -7.697132738370911
      ],
      [
        "还是",
        -7.701148198170919
      ],
      [
        "近",
        -7.702784611073345
      ],
      [
        "分",
        -7.7039474522586895
      ],
      [
        "行动",
        -7.7069697935623305
      ],
      [
        "财政",
        -7.707541228710506
      ],
      [
        "关系",
        -7.7091249454393775
      ],
      [
        "面",
        -7.709654220868305
      ],
      [
        "不会",
        -7.712986734768232
      ],
      [
        "采取",
        -7.713779942155287
      ],
      [
        "减少",
        -7.715307757609844
      ],
      [
        "长",
        -7.7156079810597555
      ],
      [
        "自由",
        -7.717803401735274
      ],
      [
        "以色列",
        -7.718897316743317
      ],
      [
        "》",
        -7.719807985095736
      ],
      [
        "《",
        -7.720719562123995
      ],
      [
        "挑战",
        -7.720986646229351
      ],
      [
        "20",
        -7.721982427098653
      ],
      [
        "教育",
        -7.722431985177411
      ],
      [
        "s",
        -7.722757367624825
      ],
      [
        "利率",
        -7.72347871180813
      ],
      [
        "接受",
        -7.7282682353849745
      ],
      [
        "的人",
        -7.728522285852089
      ],
      [
        "看",
        -7.7343437729466205
      ],
      [
        "数",
        -7.742574824911997
      ],
      [
        "提高",
        -7.744616954696006
      ],
      [
        "6",
        -7.747610496720382
      ],
      [
        "谈判",
        -7.749415243764462
      ],
      [
        "改变",
        -7.752258336715798
      ],
      [
        "P",
        -7.753159513666084
      ],
      [
        "子",
        -7.753226849689963
      ],
      [
        "水",
        -7.757113455211253
      ],
      [
        "战略",
        -7.757175818116054
      ],
      [
        "心",
        -7.757650077828576
      ],
      [
        "由于",
        -7.757658970012699
      ],
      [
        "生",
        -7.7630165209042685
      ],
      [
        "一样",
        -7.766778816977951
      ],
      [
        "同时",
        -7.767617913500435
      ],
      [
        "制度",
        -7.769279549753581
      ],
      [
        "产生",
        -7.770544304123044
      ],
      [
        "事",
        -7.7709916840929845
      ],
      [
        "出现",
        -7.772003590669535
      ],
      [
        "其中",
        -7.772942940335245
      ],
      [
        "成本",
        -7.775565394275286
      ],
      [
        "西方",
        -7.776936704051475
      ],
      [
        "从而",
        -7.776986909096048
      ],
      [
        "因素",
        -7.778006009010405
      ],
      [
        "随着",
        -7.779099653049248
      ],
      [
        "不能",
        -7.7842639295342
      ],
      [
        "降低",
        -7.784976645872542
      ],
      [
        "得到",
        -7.785320892382196
      ],
      [
        "而不是",
        -7.785517321276801
      ],
      [
        "管理",
        -7.786783716724515
      ],
      [
        "学",
        -7.789004581950672
      ],
      [
        "S",
        -7.7927287968118515
      ],
      [
        "当然",
        -7.7950360320193095
      ],
      [
        "移民",
        -7.79651967676524
      ],
      [
        "措施",
        -7.798627899908581
      ],
      [
        "稳定",
        -7.798842413988932
      ],
      [
        "未来",
        -7.802445285114591
      ],
      [
        "加",
        -7.803259075424114
      ],
      [
        "你",
        -7.804608107480966
      ],
      [
        "冲突",
        -7.8073662943779105
      ],
      [
        "资本",
        -7.808978288091545
      ],
      [
        "不同",
        -7.809638741953507
      ],
      [
        "本",
        -7.815027947702946
      ],
      [
        "重新",
        -7.8173112074864815
      ],
      [
        "来自",
        -7.817649037712707
      ],
      [
        "严重",
        -7.817981214149552
      ],
      [
        "头",
        -7.819109432304172
      ],
      [
        "手",
        -7.8198658293785535
      ],
      [
        "战争",
        -7.819933791425648
      ],
      [
        "核",
        -7.8214404588490964
      ],
      [
        "想",
        -7.822382249829912
      ],
      [
        "受到",
        -7.823479922964203
      ],
      [
        "i",
        -7.82633595147259
      ],
      [
        "t",
        -7.82798508527164
      ],
      [
        "非常",
        -7.831660436018737
      ],
      [
        "马",
        -7.835656023180422
      ],
      [
        "天",
        -7.836796560444362
      ],
      [
        "利益",
        -7.837576884911427
      ],
      [
        "服务",
        -7.838463060352245
      ],
      [
        "价格",
        -7.838763397876849
      ],
      [
        "出口",
        -7.839397659198553
      ],
      [
        "意",
        -7.8408110089087115
      ],
      [
        "人口",
        -7.842565441570564
      ],
      [
        "是否",
        -7.842896768794288
      ],
      [
        "两",
        -7.84290848239746
      ],
      [
        "完全",
        -7.84488318509697
      ],
      [
        "做",
        -7.847906739059739
      ],
      [
        "需求",
        -7.848869406636707
      ],
      [
        "派",
        -7.848974286554725
      ],
      [
        "成",
        -7.8489996090025995
      ],
      [
        "总",
        -7.8492674494536185
      ],
      [
        "新的",
        -7.84933804160793
      ],
      [
        "反",
        -7.85141424823181
      ],
      [
        "消费",
        -7.8563001468354265
      ],
      [
        "带来",
        -7.859924423517974
      ],
      [
        "建立",
        -7.860592509600547
      ],
      [
        "也是",
        -7.861931773400241
      ],
      [
        "过去",
        -7.8627708452686385
      ],
      [
        "资源",
        -7.863654346786461
      ],
      [
        "外",
        -7.866827413934409
      ],
      [
        "水平",
        -7.8685601791117525
      ],
      [
        "还有",
        -7.868919395921298
      ],
      [
        "公共",
        -7.871904425909067
      ],
      [
        "帮助",
        -7.873134332256712
      ],
      [
        "发",
        -7.873360718324401
      ],
      [
        "开",
        -7.873669863518199
      ],
      [
        "入",
        -7.875031141784456
      ],
      [
        "支出",
        -7.878908783541241
      ],
      [
        "虽然",
        -7.881662652217398
      ],
      [
        "表明",
        -7.882711668828395
      ],
      [
        "只",
        -7.882899923256181
      ],
      [
        "仍",
        -7.885114421481771
      ],
      [
        "回",
        -7.887633656726569
      ],
      [
        "同样",
        -7.889154321650636
      ],
      [
        "大部分",
        -7.889333520702965
      ],
      [
        "创新",
        -7.890206251247257
      ],
      [
        "家庭",
        -7.8902850176751755
      ],
      [
        "项目",
        -7.892067324889438
      ],
      [
        "援助",
        -7.892966685053967
      ],
      [
        "体系",
        -7.895003405333839
      ],
      [
        "的经济",
        -7.904353461602127
      ],
      [
        "监管",
        -7.904388938393907
      ],
      [
        "行为",
        -7.904694404365431
      ],
      [
        "成功",
        -7.906451978341081
      ],
      [
        "率",
        -7.913530023555858
      ],
      [
        "和平",
        -7.914140422009398
      ],
      [
        "进一步",
        -7.916697018542054
      ],
      [
        "共同",
        -7.917477220245378
      ],
      [
        "威胁",
        -7.919215283907832
      ],
      [
        "承诺",
        -7.920164828078897
      ],
      [
        "仍然",
        -7.920565114238769
      ],
      [
        "保持",
        -7.921190770281049
      ],
      [
        "制",
        -7.924461674396715
      ],
      [
        "生产",
        -7.926075235435481
      ],
      [
        "特别是",
        -7.926138892029333
      ],
      [
        "不断",
        -7.92701670881309
      ],
      [
        "持续",
        -7.927981806524416
      ],
      [
        "之间",
        -7.930773658290969
      ],
      [
        "9",
        -7.932508230825615
      ],
      [
        "一直",
        -7.93344014841967
      ],
      [
        "再",
        -7.934260957792257
      ],
      [
        "下降",
        -7.934857060394683
      ],
      [
        "资金",
        -7.935445352947998
      ],
      [
        "人民",
        -7.93614852248504
      ],
      [
        "反对",
        -7.940600730986861
      ],
      [
        "为了",
        -7.947608482450054
      ],
      [
        "19",
        -7.948075253770613
      ],
      [
        "各国",
        -7.949425483815905
      ],
      [
        "即",
        -7.9516227442359115
      ],
      [
        "间",
        -7.956387676663097
      ],
      [
        "令人",
        -7.956922384080032
      ],
      [
        "关注",
        -7.9584893093733395
      ],
      [
        "大量",
        -7.963402595070592
      ],
      [
        "y",
        -7.9647697835230975
      ],
      [
        "8",
        -7.966626821819596
      ],
      [
        "同",
        -7.97055975214999
      ],
      [
        "非洲",
        -7.9724262164683894
      ],
      [
        "系统",
        -7.977877874233649
      ],
      [
        "改善",
        -7.979510793712792
      ],
      [
        "选举",
        -7.980653135201062
      ],
      [
        "欧元",
        -7.981294619814109
      ],
      [
        "只是",
        -7.981886423778988
      ],
      [
        "中国的",
        -7.983080688668519
      ],
      [
        "造成",
        -7.98311512146054
      ],
      [
        "他们的",
        -7.984102568962217
      ],
      [
        "确保",
        -7.985455493089586
      ],
      [
        "利用",
        -7.989089659031196
      ],
      [
        "时间",
        -7.993996979904859
      ],
      [
        "具有",
        -7.994974727185848
      ],
      [
        "限制",
        -7.9965595130450415
      ],
      [
        "流",
        -8.000145693460873
      ],
      [
        "美",
        -8.000964415147934
      ],
      [
        "G",
        -8.00416418769225
      ],
      [
        "最后",
        -8.006297112785415
      ],
      [
        "相反",
        -8.00852539712625
      ],
      [
        "期",
        -8.01026370509059
      ],
      [
        "这样",
        -8.010757711962084
      ],
      [
        "方",
        -8.011403552869329
      ],
      [
        "联合国",
        -8.01192239100407
      ],
      [
        "B",
        -8.013124663241353
      ],
      [
        "度",
        -8.014570626711938
      ],
      [
        "这是",
        -8.015864476101019
      ],
      [
        "o",
        -8.018661963783352
      ],
      [
        "三",
        -8.019119328937599
      ],
      [
        "都是",
        -8.020364593545311
      ],
      [
        "能力",
        -8.024410040897568
      ],
      [
        "是一个",
        -8.025893231922481
      ],
      [
        "关于",
        -8.026270729499117
      ],
      [
        "应对",
        -8.026565633343754
      ],
      [
        "刺激",
        -8.030687278911032
      ],
      [
        "也许",
        -8.034435774764852
      ],
      [
        "现实",
        -8.03447676447233
      ],
      [
        "合",
        -8.034866612018314
      ],
      [
        "自己的",
        -8.035022675216489
      ],
      [
        "历史",
        -8.035455564052617
      ],
      [
        "意味着",
        -8.039397942306678
      ],
      [
        "位",
        -8.041496366597414
      ],
      [
        "税",
        -8.043880273283666
      ],
      [
        "sh",
        -8.045609032995088
      ],
      [
        "变化",
        -8.048416363329029
      ],
      [
        "很",
        -8.048416663988991
      ],
      [
        "某些",
        -8.050166519825375
      ],
      [
        "气候变化",
        -8.053244892792634
      ],
      [
        "占",
        -8.053516524758198
      ],
      [
        "联盟",
        -8.054469962223163
      ],
      [
        "贷款",
        -8.055208022534174
      ],
      [
        "军",
        -8.05637084466894
      ],
      [
        "部门",
        -8.0567170152189
      ],
      [
        "繁荣",
        -8.059387089641175
      ],
      [
        "竞争",
        -8.061203203561965
      ],
      [
        "战",
        -8.062663111436805
      ],
      [
        "机制",
        -8.063995018846095
      ],
      [
        "什么",
        -8.06517589489986
      ],
      [
        "超过",
        -8.065293560342788
      ],
      [
        "的政治",
        -8.065378711990963
      ],
      [
        "健康",
        -8.065805152914216
      ],
      [
        "扩大",
        -8.066572768029214
      ],
      [
        "委员会",
        -8.0698619214806
      ],
      [
        "令",
        -8.070445642175184
      ],
      [
        "和其他",
        -8.071572237368144
      ],
      [
        "那",
        -8.074718386648335
      ],
      [
        "实际",
        -8.07712522496222
      ],
      [
        "参与",
        -8.077720878695326
      ],
      [
        "中的",
        -8.079315187730922
      ],
      [
        "欧洲央行",
        -8.07949203197504
      ],
      [
        "创造",
        -8.080824285367964
      ],
      [
        "面临",
        -8.080894068398287
      ],
      [
        "金",
        -8.085157295700906
      ],
      [
        "维持",
        -8.086773602984634
      ],
      [
        "民众",
        -8.086799667253558
      ],
      [
        "各",
        -8.08954513683587
      ],
      [
        "模式",
        -8.09114058172501
      ],
      [
        "的问题",
        -8.091328263963543
      ],
      [
        "领域",
        -8.091593803290932
      ],
      [
        "规则",
        -8.092226424404352
      ],
      [
        "活动",
        -8.094050666340909
      ],
      [
        "融资",
        -8.096841794214413
      ],
      [
        "的话",
        -8.099290270796745
      ],
      [
        "人类",
        -8.099529182054951
      ],
      [
        "土耳其",
        -8.099858472160168
      ],
      [
        "将会",
        -8.100634832620491
      ],
      [
        "全世界",
        -8.100880848430617
      ],
      [
        "事件",
        -8.101356153963913
      ],
      [
        "上升",
        -8.102846723423271
      ],
      [
        "推动",
        -8.103000807570101
      ],
      [
        "次",
        -8.104145709069805
      ],
      [
        "几乎",
        -8.10436459869608
      ],
      [
        "发现",
        -8.107156409961757
      ],
      [
        "美联储",
        -8.107713961428775
      ],
      [
        "贫困",
        -8.113730446650342
      ],
      [
        "E",
        -8.114610858028746
      ],
      [
        "投资者",
        -8.114852968861694
      ],
      [
        "整个",
        -8.115010753710843
      ],
      [
        "做出",
        -8.11551408586187
      ],
      [
        "之间的",
        -8.118250305240162
      ],
      [
        "作用",
        -8.118487746056694
      ],
      [
        "格",
        -8.12018111602096
      ],
      [
        "作",
        -8.122055697160008
      ],
      [
        "尼",
        -8.122664024614203
      ],
      [
        "资产",
        -8.124201771237328
      ],
      [
        "考虑",
        -8.125120131329616
      ],
      [
        "亚",
        -8.125189360479222
      ],
      [
        "0",
        -8.125386525350002
      ],
      [
        "经济学家",
        -8.125401603963487
      ],
      [
        "p",
        -8.126871368316369
      ],
      [
        "传统",
        -8.126884715941415
      ],
      [
        "城市",
        -8.12732831909305
      ],
      [
        "任",
        -8.131128481782419
      ],
      [
        "更多",
        -8.131676385621837
      ],
      [
        "不仅",
        -8.13544263526039
      ],
      [
        "M",
        -8.137417870845585
      ],
      [
        "经济增长",
        -8.138483763678924
      ],
      [
        "机会",
        -8.140118537833466
      ],
      [
        "情况",
        -8.140547536461504
      ],
      [
        "上述",
        -8.141190093768152
      ],
      [
        "卡",
        -8.142041237176098
      ],
      [
        "c",
        -8.142237158642294
      ],
      [
        "主",
        -8.14359998159821
      ],
      [
        "权力",
        -8.147573629327443
      ],
      [
        "党",
        -8.14870149522281
      ],
      [
        "之后",
        -8.150792356670404
      ],
      [
        "每",
        -8.153383867713533
      ],
      [
        "动",
        -8.154895243741255
      ],
      [
        "I",
        -8.155817352315456
      ],
      [
        "规模",
        -8.15611106676775
      ],
      [
        "及其",
        -8.156767226788473
      ],
      [
        "公",
        -8.158045583618016
      ],
      [
        "此",
        -8.158893332096127
      ],
      [
        "避免",
        -8.16002469866838
      ],
      [
        "g",
        -8.160214394380688
      ],
      [
        "医疗",
        -8.160396829845133
      ],
      [
        "运动",
        -8.162890410541689
      ],
      [
        "处",
        -8.163548641989825
      ],
      [
        "个人",
        -8.164415480102594
      ],
      [
        "预算",
        -8.165787882431683
      ],
      [
        "美国的",
        -8.167273311069316
      ],
      [
        "的时候",
        -8.16804651569485
      ],
      [
        "远",
        -8.17041891279014
      ],
      [
        "极",
        -8.171055539205764
      ],
      [
        "结束",
        -8.171668558246719
      ],
      [
        "一场",
        -8.172927643926887
      ],
      [
        "日益",
        -8.173232571554081
      ],
      [
        "状况",
        -8.174788559514806
      ],
      [
        "才能",
        -8.174850307482956
      ],
      [
        "制定",
        -8.176564516747021
      ],
      [
        "她",
        -8.176793502279272
      ],
      [
        "官员",
        -8.178047032018197
      ],
      [
        "价值",
        -8.178472801312347
      ],
      [
        "相",
        -8.179913000042246
      ],
      [
        "知道",
        -8.182583112155664
      ],
      [
        "一次",
        -8.18298516075211
      ],
      [
        "叙利亚",
        -8.183182093824914
      ],
      [
        "内部",
        -8.183846197357845
      ],
      [
        "力量",
        -8.184937739503802
      ],
      [
        "明",
        -8.186258159013306
      ],
      [
        "有效",
        -8.189814691428683
      ],
      [
        "之一",
        -8.190135434849697
      ],
      [
        "与此同时",
        -8.190530339693039
      ],
      [
        "巨大的",
        -8.19121494669925
      ],
      [
        "债券",
        -8.193265934600884
      ],
      [
        "即使",
        -8.19338059776188
      ],
      [
        "独立",
        -8.193410752310548
      ],
      [
        "走",
        -8.193640406612388
      ],
      [
        "mda",
        -8.196786742487868
      ],
      [
        "10",
        -8.196902105412061
      ],
      [
        "调整",
        -8.19780842181395
      ],
      [
        "直接",
        -8.198188459116839
      ],
      [
        "首先",
        -8.200984115705763
      ],
      [
        "身",
        -8.20119548494312
      ],
      [
        "关键",
        -8.202795169124624
      ],
      [
        "这一点",
        -8.207025622957925
      ],
      [
        "IMF",
        -8.208110143935073
      ],
      [
        "的情况下",
        -8.208418916361506
      ],
      [
        "钱",
        -8.20916471989501
      ],
      [
        "公民",
        -8.209258045110458
      ],
      [
        "依然",
        -8.209633600315478
      ],
      [
        "达到",
        -8.209726668927683
      ],
      [
        "部",
        -8.210159938190131
      ],
      [
        "巴西",
        -8.21129941996325
      ],
      [
        "标准",
        -8.212616375991317
      ],
      [
        "成员国",
        -8.214001640447648
      ],
      [
        "部分",
        -8.214165905851546
      ],
      [
        "央行",
        -8.2145332362445
      ],
      [
        "文化",
        -8.216290390922392
      ],
      [
        "商",
        -8.21830093676919
      ],
      [
        "就会",
        -8.218533554597098
      ],
      [
        "区",
        -8.218801485403166
      ],
      [
        "埃及",
        -8.220240025933986
      ],
      [
        "而是",
        -8.220468709134217
      ],
      [
        "纳",
        -8.22112776561935
      ],
      [
        "不可",
        -8.221302912990332
      ],
      [
        "经济体",
        -8.221395244828676
      ],
      [
        "条件",
        -8.224961777808254
      ],
      [
        "更多的",
        -8.22496671055707
      ],
      [
        "an",
        -8.226351889419394
      ],
      [
        "代表",
        -8.226359199521244
      ],
      [
        "产品",
        -8.226819731059692
      ],
      [
        "达",
        -8.229137000870221
      ],
      [
        "一项",
        -8.229457091366246
      ],
      [
        "万",
        -8.23055313030868
      ],
      [
        "报告",
        -8.230682803922285
      ],
      [
        "进入",
        -8.232812708029734
      ],
      [
        "才",
        -8.233148936486423
      ],
      [
        "感",
        -8.23442905449901
      ],
      [
        "相对",
        -8.23532873330267
      ],
      [
        "线",
        -8.235367399370155
      ],
      [
        "之前",
        -8.235461747730964
      ],
      [
        "体",
        -8.237029000138339
      ],
      [
        "较",
        -8.237598276556877
      ],
      [
        "罗",
        -8.239268920053403
      ],
      [
        "意大利",
        -8.239784015328443
      ],
      [
        "因",
        -8.24057845802669
      ],
      [
        "或许",
        -8.241708785278476
      ],
      [
        "革命",
        -8.242719850524107
      ],
      [
        "相信",
        -8.242727996513404
      ],
      [
        "发展中国家",
        -8.243522444740927
      ],
      [
        "破坏",
        -8.245031125508225
      ],
      [
        "方案",
        -8.245149809651858
      ],
      [
        "领导",
        -8.246102935343101
      ],
      [
        "显然",
        -8.247222738917127
      ],
      [
        "担心",
        -8.247557070180488
      ],
      [
        "当前",
        -8.247999899184741
      ],
      [
        "通胀",
        -8.249639331213562
      ],
      [
        "基础设施",
        -8.251379824331611
      ],
      [
        "十分",
        -8.253656124545996
      ],
      [
        "代",
        -8.254371232822091
      ],
      [
        "D",
        -8.255230415569397
      ],
      [
        "的是",
        -8.255310931723383
      ],
      [
        "那样",
        -8.25535802265902
      ],
      [
        "T",
        -8.258346619893558
      ],
      [
        "法律",
        -8.25904976796959
      ],
      [
        "局",
        -8.259657323942434
      ],
      [
        "削减",
        -8.259911936971454
      ],
      [
        "数据",
        -8.261043483949742
      ],
      [
        "试图",
        -8.261508922395308
      ],
      [
        "重大",
        -8.262172196198676
      ],
      [
        "的政策",
        -8.262817281217064
      ],
      [
        "海",
        -8.263160913178545
      ],
      [
        "伊拉克",
        -8.264209298688876
      ],
      [
        "交易",
        -8.264908701364696
      ],
      [
        "他的",
        -8.265889670935449
      ],
      [
        "损失",
        -8.268823248165663
      ],
      [
        "指出",
        -8.270137348954979
      ],
      [
        "西",
        -8.270280234116282
      ],
      [
        "理",
        -8.270419579104583
      ],
      [
        "约",
        -8.270625489075375
      ],
      [
        "努力",
        -8.27102938071972
      ],
      [
        "er",
        -8.273525135878419
      ],
      [
        "奥巴马",
        -8.2744401581027
      ],
      [
        "d",
        -8.277046510254648
      ],
      [
        "预测",
        -8.277289084809123
      ],
      [
        "r",
        -8.278131025168287
      ],
      [
        "会议",
        -8.279650771404693
      ],
      [
        "打",
        -8.280995762622101
      ],
      [
        "程度",
        -8.283747681386
      ],
      [
        "全",
        -8.284363727483324
      ],
      [
        "每年",
        -8.28520402527945
      ],
      [
        "原因",
        -8.285273749851292
      ],
      [
        "强",
        -8.289273006425102
      ],
      [
        "老",
        -8.291570298645919
      ],
      [
        "很多",
        -8.292374130894231
      ],
      [
        "发达国家",
        -8.297081267965766
      ],
      [
        "自身",
        -8.297313310199279
      ],
      [
        "亿美元",
        -8.29971060592542
      ],
      [
        "根据",
        -8.299875225231858
      ],
      [
        "见",
        -8.30022811052045
      ],
      [
        "石油",
        -8.300404098938973
      ],
      [
        "u",
        -8.301087916842718
      ],
      [
        "进步",
        -8.301608436369722
      ],
      [
        "全球化",
        -8.302332584089683
      ],
      [
        "在于",
        -8.302423496439571
      ],
      [
        "大规模",
        -8.307454528539079
      ],
      [
        "失败",
        -8.308014762979074
      ],
      [
        "曾",
        -8.308962786856824
      ],
      [
        "至少",
        -8.309543225829206
      ],
      [
        "税收",
        -8.309576408202627
      ],
      [
        "言",
        -8.3118609467353
      ],
      [
        "知",
        -8.311877577612883
      ],
      [
        "外交",
        -8.315127671578555
      ],
      [
        "信",
        -8.315513330996499
      ],
      [
        "难以",
        -8.319484547228967
      ],
      [
        "压力",
        -8.319910970088053
      ],
      [
        "气",
        -8.322002731568507
      ],
      [
        "军事",
        -8.322550757501759
      ],
      [
        "方法",
        -8.323741456393861
      ],
      [
        "更为",
        -8.324020872707397
      ],
      [
        "可能会",
        -8.324383522320947
      ],
      [
        "相关",
        -8.325042357284929
      ],
      [
        "生活",
        -8.325449469872712
      ],
      [
        "公众",
        -8.326284089036179
      ],
      [
        "用于",
        -8.331570901649343
      ],
      [
        "科学",
        -8.332891922907796
      ],
      [
        "先",
        -8.334166563913517
      ],
      [
        "夫",
        -8.334560809501426
      ],
      [
        "安",
        -8.334915764016714
      ],
      [
        "就业",
        -8.336389410797635
      ],
      [
        "十",
        -8.339714010128459
      ],
      [
        "儿童",
        -8.340982891262602
      ],
      [
        "然",
        -8.34215482278543
      ],
      [
        "气候",
        -8.34272646853314
      ],
      [
        "针对",
        -8.343484966601714
      ],
      [
        "承认",
        -8.346650792418203
      ],
      [
        "讨论",
        -8.348181343293373
      ],
      [
        "维",
        -8.348514907833046
      ],
      [
        "暴力",
        -8.350137774031872
      ],
      [
        "地位",
        -8.35054982550127
      ],
      [
        "拒绝",
        -8.353293042397189
      ],
      [
        "衰退",
        -8.355950767216452
      ],
      [
        "论",
        -8.356607129065498
      ],
      [
        "手段",
        -8.356796743124075
      ],
      [
        "只能",
        -8.358755283384351
      ],
      [
        "全球经济",
        -8.359645975535688
      ],
      [
        "而言",
        -8.36233387478736
      ],
      [
        "信息",
        -8.363595066739629
      ],
      [
        "几",
        -8.36502214696041
      ],
      [
        "难民",
        -8.365963233839047
      ],
      [
        "的影响",
        -8.367274609489858
      ],
      [
        "商业",
        -8.368140909283152
      ],
      [
        "性的",
        -8.368638217324552
      ],
      [
        "迅速",
        -8.368842968910247
      ],
      [
        "越",
        -8.369714085116776
      ],
      [
        "品",
        -8.370410419912012
      ],
      [
        "��",
        -8.370585302061407
      ],
      [
        "布",
        -8.372115847249315
      ],
      [
        "���",
        -8.372333553850995
      ],
      [
        "路",
        -8.372552233675135
      ],
      [
        "实",
        -8.374279441170334
      ],
      [
        "然而",
        -8.378103851311366
      ],
      [
        "原",
        -8.378140340961206
      ],
      [
        "阿富汗",
        -8.379357287161312
      ],
      [
        "变",
        -8.38042314531768
      ],
      [
        "额",
        -8.380494912832491
      ],
      [
        "基本",
        -8.380773954741874
      ],
      [
        "带",
        -8.381851691039143
      ],
      [
        "越来越",
        -8.382489106127407
      ],
      [
        "推",
        -8.383422108176541
      ],
      [
        "教",
        -8.3842456960064
      ],
      [
        "巴",
        -8.38426977761468
      ],
      [
        "正如",
        -8.384707312732807
      ],
      [
        "业",
        -8.386811554898802
      ],
      [
        "责任",
        -8.3878794483478
      ],
      [
        "基金",
        -8.388306605679897
      ],
      [
        "选民",
        -8.390521148695203
      ],
      [
        "方式",
        -8.392716844211172
      ],
      [
        "政权",
        -8.39368423758502
      ],
      [
        "民",
        -8.394137840011446
      ],
      [
        "今年",
        -8.396909159231793
      ],
      [
        "in",
        -8.397038772374525
      ],
      [
        "至",
        -8.397056916955236
      ],
      [
        "时期",
        -8.400375138687966
      ],
      [
        "阿",
        -8.40159141042209
      ],
      [
        "有可能",
        -8.401842736255588
      ],
      [
        "的新",
        -8.403787465945857
      ],
      [
        "乌克兰",
        -8.40614460706633
      ],
      [
        "并没有",
        -8.408241215178794
      ],
      [
        "b",
        -8.40923148142667
      ],
      [
        "积极",
        -8.410076894273569
      ],
      [
        "赤字",
        -8.410512532351255
      ],
      [
        "促进",
        -8.412033010422032
      ],
      [
        "形成",
        -8.413050279942388
      ],
      [
        "错误",
        -8.413169747559479
      ],
      [
        "缺乏",
        -8.413435623390047
      ],
      [
        "基",
        -8.413767116395437
      ],
      [
        "汇率",
        -8.415325966132173
      ],
      [
        "结构",
        -8.416143889100962
      ],
      [
        "理解",
        -8.417659263878722
      ],
      [
        "风",
        -8.418752277111567
      ],
      [
        "现",
        -8.420532821348534
      ],
      [
        "物",
        -8.420615426234779
      ],
      [
        "光",
        -8.424298169896499
      ],
      [
        "工资",
        -8.42452054133653
      ],
      [
        "一切",
        -8.426350454850587
      ],
      [
        "不再",
        -8.427518333495541
      ],
      [
        "F",
        -8.429948777534918
      ],
      [
        "吗",
        -8.429955236784494
      ],
      [
        "网络",
        -8.43323579667851
      ],
      [
        "短期",
        -8.433873091611282
      ],
      [
        "决策",
        -8.434097500600355
      ],
      [
        "面对",
        -8.436075757417766
      ],
      [
        "货币政策",
        -8.438998489450608
      ],
      [
        "相当",
        -8.439553547150656
      ],
      [
        "提出",
        -8.43969342369623
      ],
      [
        "月",
        -8.439852826111618
      ],
      [
        "场",
        -8.440224845255386
      ],
      [
        "依赖",
        -8.44381298495952
      ],
      [
        "应",
        -8.445019707428763
      ],
      [
        "时代",
        -8.447006820358462
      ],
      [
        "文",
        -8.448095510559803
      ],
      [
        "阻止",
        -8.448681110054654
      ],
      [
        "平衡",
        -8.448794207756624
      ],
      [
        "十年",
        -8.449889130937269
      ],
      [
        "数量",
        -8.450633544979492
      ],
      [
        "通",
        -8.450766948475135
      ],
      [
        "四",
        -8.454609694706187
      ],
      [
        "我们的",
        -8.455440473617807
      ],
      [
        "上的",
        -8.455455012667802
      ],
      [
        "中东",
        -8.458449014385069
      ],
      [
        "取",
        -8.458676378554177
      ],
      [
        "证明",
        -8.458876732334879
      ],
      [
        "解释",
        -8.45981882679449
      ],
      [
        "一致",
        -8.45986145762047
      ],
      [
        "哈",
        -8.46005963773873
      ],
      [
        "眼",
        -8.460580340615222
      ],
      [
        "称",
        -8.46071113270422
      ],
      [
        "观点",
        -8.461883907040068
      ],
      [
        "亿",
        -8.46256906958424
      ],
      [
        "原则",
        -8.463540582806008
      ],
      [
        "腐败",
        -8.464286761498219
      ],
      [
        "空",
        -8.464998259427821
      ],
      [
        "女性",
        -8.465408045289314
      ],
      [
        "其他国家",
        -8.4658704424184
      ],
      [
        "允许",
        -8.46775778377674
      ],
      [
        "条约",
        -8.467913222394753
      ],
      [
        "总理",
        -8.468184677022172
      ],
      [
        "ar",
        -8.46825436274461
      ],
      [
        "建设",
        -8.472780132298565
      ],
      [
        "型",
        -8.473043238393425
      ],
      [
        "变得",
        -8.473230753445675
      ],
      [
        "巴基斯坦",
        -8.473522730507394
      ],
      [
        "on",
        -8.473711050026798
      ],
      [
        "承担",
        -8.47547058308407
      ],
      [
        "农业",
        -8.475568372713237
      ],
      [
        "行业",
        -8.476054241967669
      ],
      [
        "今天",
        -8.477094649181053
      ],
      [
        "问题上",
        -8.477925405447452
      ],
      [
        "领袖",
        -8.479351178560126
      ],
      [
        "en",
        -8.47984494409383
      ],
      [
        "初",
        -8.479875194274168
      ],
      [
        "种",
        -8.480313119981643
      ],
      [
        "基础",
        -8.481346087730376
      ],
      [
        "保证",
        -8.481376270730248
      ],
      [
        "陷入",
        -8.481644863072667
      ],
      [
        "治理",
        -8.483669336214547
      ],
      [
        "道",
        -8.483926556233921
      ],
      [
        "有所",
        -8.483928424285024
      ],
      [
        "常",
        -8.486810224884614
      ],
      [
        "过度",
        -8.488385486579958
      ],
      [
        "欧洲的",
        -8.488807163353016
      ],
      [
        "清",
        -8.488938411286377
      ],
      [
        "不可能",
        -8.489491428051064
      ],
      [
        "爆发",
        -8.490128488295003
      ],
      [
        "视",
        -8.490398693914653
      ],
      [
        "显示",
        -8.491395873611385
      ],
      [
        "宣布",
        -8.49312695896633
      ],
      [
        "成员",
        -8.494543595203684
      ],
      [
        "开放",
        -8.495426920942165
      ],
      [
        "重要的",
        -8.498545917041273
      ],
      [
        "储蓄",
        -8.498647104761204
      ],
      [
        "有关",
        -8.49868459771226
      ],
      [
        "放",
        -8.499610081663198
      ],
      [
        "太",
        -8.500269085898385
      ],
      [
        "表现",
        -8.500326252766857
      ],
      [
        "计",
        -8.500559820947657
      ],
      [
        "美国人",
        -8.501194163900017
      ],
      [
        "花",
        -8.502843626577913
      ],
      [
        "工具",
        -8.503034907755687
      ],
      [
        "且",
        -8.505424143029796
      ],
      [
        "工人",
        -8.506220286203924
      ],
      [
        "未",
        -8.506912615330485
      ],
      [
        "GDP",
        -8.506950860208985
      ],
      [
        "集团",
        -8.507037648276267
      ],
      [
        "实际上",
        -8.50913688367373
      ],
      [
        "国家的",
        -8.511196978512217
      ],
      [
        "数字",
        -8.511217258570724
      ],
      [
        "道德",
        -8.51372486776545
      ],
      [
        "州",
        -8.51462129189078
      ],
      [
        "感到",
        -8.515613711580585
      ],
      [
        "私人",
        -8.517497946782134
      ],
      [
        "加入",
        -8.519862371193966
      ],
      [
        "并非",
        -8.521756100478232
      ],
      [
        "最大的",
        -8.52183178515771
      ],
      [
        "两个",
        -8.522539443568458
      ],
      [
        "呢",
        -8.523136052569104
      ],
      [
        "到了",
        -8.523260575421764
      ],
      [
        "往往",
        -8.523349964662135
      ],
      [
        "进",
        -8.52463083431886
      ],
      [
        "决策者",
        -8.524715441594122
      ],
      [
        "两国",
        -8.52563334124655
      ],
      [
        "转",
        -8.526607608129735
      ],
      [
        "看到",
        -8.529264047435262
      ],
      [
        "困难",
        -8.529304929868953
      ],
      [
        "值",
        -8.529453903219437
      ],
      [
        "人权",
        -8.530820291294424
      ],
      [
        "起来",
        -8.533773206882987
      ],
      [
        "当时",
        -8.536457056308482
      ],
      [
        "选",
        -8.53733180511014
      ],
      [
        "干预",
        -8.539905845543954
      ],
      [
        "科",
        -8.5408250267355
      ],
      [
        "al",
        -8.54358512470888
      ],
      [
        "遏制",
        -8.543704899433878
      ],
      [
        "门",
        -8.544976838656954
      ],
      [
        "h",
        -8.545578375898558
      ],
      [
        "奥",
        -8.545769399124325
      ],
      [
        "后果",
        -8.546019911522464
      ],
      [
        "收",
        -8.54719871783564
      ],
      [
        "大幅",
        -8.547262947118721
      ],
      [
        "充分",
        -8.54792710351737
      ],
      [
        "达成",
        -8.550530117297143
      ],
      [
        "通常",
        -8.554359001589518
      ],
      [
        "去年",
        -8.555505219024049
      ],
      [
        "调",
        -8.555606182902853
      ],
      [
        "一位",
        -8.555704258982379
      ],
      [
        "情",
        -8.558000832746092
      ],
      [
        "伊斯兰",
        -8.558488539869533
      ],
      [
        "落",
        -8.558981458240437
      ],
      [
        "难",
        -8.558988995653419
      ],
      [
        "执行",
        -8.560930457558356
      ],
      [
        "指",
        -8.561212602731363
      ],
      [
        "地方",
        -8.56214424540689
      ],
      [
        "完成",
        -8.56430583312942
      ],
      [
        "热",
        -8.56444791897999
      ],
      [
        "明确",
        -8.564638848690976
      ],
      [
        "深",
        -8.565248838718464
      ],
      [
        "韩国",
        -8.565862060373366
      ],
      [
        "确实",
        -8.566960043828615
      ],
      [
        "预期",
        -8.566974621741661
      ],
      [
        "外部",
        -8.567959781104571
      ],
      [
        "有助于",
        -8.568943047379307
      ],
      [
        "购买",
        -8.571103237291391
      ],
      [
        "当局",
        -8.572306233877601
      ],
      [
        "南",
        -8.572327614590371
      ],
      [
        "R",
        -8.572661947164463
      ],
      [
        "中心",
        -8.572915211244652
      ],
      [
        "应当",
        -8.575235062009085
      ],
      [
        "N",
        -8.575339677801722
      ],
      [
        "米",
        -8.575339796500232
      ],
      [
        "加强",
        -8.577101404493945
      ],
      [
        "病",
        -8.577976635234986
      ],
      [
        "市",
        -8.578781646108855
      ],
      [
        "基于",
        -8.578796336278268
      ],
      [
        "快速",
        -8.582892771418434
      ],
      [
        "东",
        -8.58486342095203
      ],
      [
        "级",
        -8.585623828335798
      ],
      [
        "f",
        -8.58904417160365
      ],
      [
        "药",
        -8.589663412153058
      ],
      [
        "公开",
        -8.59122700871307
      ],
      [
        "主权",
        -8.591921918811234
      ],
      [
        "期间",
        -8.596497082128549
      ],
      [
        "制造",
        -8.597357788630548
      ],
      [
        "or",
        -8.59829482876818
      ],
      [
        "类",
        -8.598759182265383
      ],
      [
        "复杂",
        -8.598976024870552
      ],
      [
        "潜在",
        -8.600170491182066
      ],
      [
        "除",
        -8.600447580526925
      ],
      [
        "贬值",
        -8.600779102428577
      ],
      [
        "疾病",
        -8.60144042301864
      ],
      [
        "趋势",
        -8.601811959474006
      ],
      [
        "财富",
        -8.603642571509678
      ],
      [
        "宗教",
        -8.603647342802823
      ],
      [
        "找到",
        -8.60415842018578
      ],
      [
        "经",
        -8.607174751488614
      ],
      [
        "式",
        -8.607562929147363
      ],
      [
        "成立",
        -8.608264639921511
      ],
      [
        "五",
        -8.609872833469575
      ],
      [
        "多数",
        -8.610268130923423
      ],
      [
        "治疗",
        -8.61042372261888
      ],
      [
        "项",
        -8.611110159471611
      ],
      [
        "据",
        -8.612143563264853
      ],
      [
        "50",
        -8.612181292256132
      ],
      [
        "伦敦",
        -8.612465578691076
      ],
      [
        "特朗普",
        -8.614689300122134
      ],
      [
        "媒体",
        -8.614717294210191
      ],
      [
        "处于",
        -8.615410227677799
      ],
      [
        "平均",
        -8.616720774076548
      ],
      [
        "声",
        -8.6182991230463
      ],
      [
        "愿意",
        -8.61900639025242
      ],
      [
        "毕竟",
        -8.619160264669691
      ],
      [
        "大多数",
        -8.619676126166063
      ],
      [
        "30",
        -8.62060172356328
      ],
      [
        "平",
        -8.621201327541392
      ],
      [
        "扩张",
        -8.623655615772794
      ],
      [
        "处理",
        -8.624578439051968
      ],
      [
        "过程",
        -8.625139635999163
      ],
      [
        "火",
        -8.625801523254314
      ],
      [
        "西班牙",
        -8.625894000726408
      ],
      [
        "妇女",
        -8.625936608649475
      ],
      [
        "真正",
        -8.626008394020158
      ],
      [
        "再次",
        -8.626959399746559
      ],
      [
        "人员",
        -8.627485193267278
      ],
      [
        "界",
        -8.629047284764404
      ],
      [
        "自然",
        -8.62942383444582
      ],
      [
        "节",
        -8.629766753470445
      ],
      [
        "电",
        -8.63066703401024
      ],
      [
        "解",
        -8.631531011126519
      ],
      [
        "鼓励",
        -8.632687610540087
      ],
      [
        "另一个",
        -8.632989990884806
      ],
      [
        "在美国",
        -8.634238232170581
      ],
      [
        "准备",
        -8.634347977733587
      ],
      [
        "崩溃",
        -8.634960895917061
      ],
      [
        "m",
        -8.63565125906998
      ],
      [
        "既",
        -8.636999241651797
      ],
      [
        "金融市场",
        -8.638034609041192
      ],
      [
        "消费者",
        -8.639542626086591
      ],
      [
        "纽约",
        -8.639578335644462
      ],
      [
        "巴勒斯坦",
        -8.639884637834935
      ],
      [
        "真正的",
        -8.639891086580072
      ],
      [
        "取得",
        -8.641854854746047
      ],
      [
        "评估",
        -8.6441031570373
      ],
      [
        "听",
        -8.64526725058688
      ],
      [
        "防止",
        -8.648780466987708
      ],
      [
        "事实",
        -8.649048294978101
      ],
      [
        "大约",
        -8.649206312101489
      ],
      [
        "曾经",
        -8.649602884547587
      ],
      [
        "员",
        -8.651501951105363
      ],
      [
        "认识到",
        -8.652588106801847
      ],
      [
        "信用",
        -8.652690658867177
      ],
      [
        "这意味着",
        -8.652790646842256
      ],
      [
        "强调",
        -8.65361152435001
      ],
      [
        "观",
        -8.654162079348469
      ],
      [
        "错",
        -8.655587467011468
      ],
      [
        "框架",
        -8.655651236346845
      ],
      [
        "宪法",
        -8.655725165961773
      ],
      [
        "进程",
        -8.65588180273607
      ],
      [
        "强化",
        -8.656874265224886
      ],
      [
        "效率",
        -8.660203546671337
      ],
      [
        "该国",
        -8.662181658698657
      ],
      [
        "比例",
        -8.662294182105867
      ],
      [
        "半",
        -8.662704166806192
      ],
      [
        "劳动力",
        -8.66409978723279
      ],
      [
        "列",
        -8.664526743868564
      ],
      [
        "实力",
        -8.665938645824667
      ],
      [
        "现代",
        -8.66700583355873
      ],
      [
        "所谓的",
        -8.667695042800762
      ],
      [
        "金融危机",
        -8.672791000828685
      ],
      [
        "步",
        -8.672992597426774
      ],
      [
        "n",
        -8.673508577371653
      ],
      [
        "极端",
        -8.67606546860124
      ],
      [
        "机",
        -8.676185228844037
      ],
      [
        "优势",
        -8.676856487850138
      ],
      [
        "也会",
        -8.678097908759192
      ],
      [
        "寻求",
        -8.679176647306104
      ],
      [
        "主席",
        -8.681280672322238
      ],
      [
        "\"",
        -8.68153440196136
      ],
      [
        "2010年",
        -8.681644694216295
      ],
      [
        "复苏",
        -8.68185744076246
      ],
      [
        "欧",
        -8.684430090845972
      ],
      [
        "巨大",
        -8.685188665481327
      ],
      [
        "周",
        -8.685617147065658
      ],
      [
        "大学",
        -8.6858481855095
      ],
      [
        "第三",
        -8.686763158825
      ],
      [
        "算",
        -8.688412369496877
      ],
      [
        "第二",
        -8.688531834171158
      ],
      [
        "第一",
        -8.688950990316684
      ],
      [
        "微",
        -8.69089454429418
      ],
      [
        "投票",
        -8.691187134807533
      ],
      [
        "食品",
        -8.691199365377209
      ],
      [
        "口",
        -8.691744340375422
      ],
      [
        "只要",
        -8.692085613850768
      ],
      [
        "坚持",
        -8.693618185112403
      ],
      [
        "产",
        -8.693625403843221
      ],
      [
        "外国",
        -8.693695645904986
      ],
      [
        "存",
        -8.693793243791408
      ],
      [
        "2008年",
        -8.694185668626016
      ],
      [
        "正是",
        -8.69474847814027
      ],
      [
        "同意",
        -8.694775852208224
      ],
      [
        "H",
        -8.695940380888214
      ],
      [
        "负",
        -8.696581666474014
      ],
      [
        "致",
        -8.698039565937561
      ],
      [
        "情绪",
        -8.698365681053108
      ],
      [
        "为什么",
        -8.698590531724435
      ],
      [
        "转型",
        -8.69860971110225
      ],
      [
        "动荡",
        -8.698624682068903
      ],
      [
        "竞争力",
        -8.699612856767766
      ],
      [
        "单",
        -8.699756107407238
      ],
      [
        "简单",
        -8.7007390038139
      ],
      [
        "世",
        -8.702995663194258
      ],
      [
        "分析",
        -8.703235733265416
      ],
      [
        "恢复",
        -8.704995803751503
      ],
      [
        "影响力",
        -8.705579783081351
      ],
      [
        "的目标",
        -8.706653151731885
      ],
      [
        "图",
        -8.70760869247091
      ],
      [
        "追求",
        -8.70816861206028
      ],
      [
        "本身",
        -8.708762974612831
      ],
      [
        "穆斯林",
        -8.710556938851703
      ],
      [
        "波",
        -8.712800146027398
      ],
      [
        "提",
        -8.713023621499328
      ],
      [
        "的主要",
        -8.715257712365178
      ],
      [
        "死亡",
        -8.717628511185659
      ],
      [
        "止",
        -8.717628737621077
      ],
      [
        "满足",
        -8.718163755836995
      ],
      [
        "快",
        -8.720322356002914
      ],
      [
        "开发",
        -8.720455057757126
      ],
      [
        "紧缩",
        -8.720735665802218
      ],
      [
        "200",
        -8.720928100327022
      ],
      [
        "但这",
        -8.721321098334904
      ],
      [
        "生产率",
        -8.7232913780033
      ],
      [
        "少",
        -8.723934031204273
      ],
      [
        "在过去",
        -8.724612614149347
      ],
      [
        "表示",
        -8.72545515063853
      ],
      [
        "人民币",
        -8.725512279042361
      ],
      [
        "尽",
        -8.726327756476284
      ],
      [
        "条",
        -8.72720096879074
      ],
      [
        "GDP的",
        -8.72949988687925
      ],
      [
        "逐渐",
        -8.730390277110484
      ],
      [
        "权利",
        -8.730581919791252
      ],
      [
        "得多",
        -8.73073348170429
      ],
      [
        "意义",
        -8.731648094756924
      ],
      [
        "女",
        -8.731893342393565
      ],
      [
        "/",
        -8.732890404026564
      ],
      [
        "不过",
        -8.735451374948042
      ],
      [
        "经济学",
        -8.735703095516774
      ],
      [
        "百",
        -8.73666639205905
      ],
      [
        "尤其是",
        -8.737606357813242
      ],
      [
        "价",
        -8.73861086934686
      ],
      [
        "除了",
        -8.739661496809035
      ],
      [
        "不到",
        -8.739770126232912
      ],
      [
        "联系",
        -8.739964917410497
      ],
      [
        "卫生",
        -8.740217164564331
      ],
      [
        "联邦",
        -8.740404939872654
      ],
      [
        "引发",
        -8.741774668749407
      ],
      [
        "这场",
        -8.742287630319815
      ],
      [
        "#",
        -8.742978756623165
      ],
      [
        "但在",
        -8.744536820865672
      ],
      [
        "范围",
        -8.744930752599894
      ],
      [
        "资",
        -8.748819879150076
      ],
      [
        "全面",
        -8.748973126482735
      ],
      [
        "的风险",
        -8.75029738405973
      ],
      [
        "工",
        -8.750491993194057
      ],
      [
        "倍",
        -8.750499715790985
      ],
      [
        "瓦",
        -8.750612035684512
      ],
      [
        "O",
        -8.750612172339665
      ],
      [
        "共",
        -8.7509182234148
      ],
      [
        "政党",
        -8.751339671060036
      ],
      [
        "二",
        -8.752450157657613
      ],
      [
        "源",
        -8.753785339949289
      ],
      [
        "灾难",
        -8.75479843839699
      ],
      [
        "怀疑",
        -8.755774706501928
      ],
      [
        "下跌",
        -8.756184218048574
      ],
      [
        "提供了",
        -8.757101618154872
      ],
      [
        "使得",
        -8.757488261040773
      ],
      [
        "之外",
        -8.75937618854039
      ],
      [
        "的关键",
        -8.760488671699697
      ],
      [
        "秩序",
        -8.760882038360498
      ],
      [
        "没",
        -8.762264459233144
      ],
      [
        "k",
        -8.763027602899072
      ],
      [
        "创",
        -8.763058175019133
      ],
      [
        "re",
        -8.76341594293344
      ],
      [
        "的支持",
        -8.763839016142455
      ],
      [
        "表",
        -8.765471620820414
      ],
      [
        "失",
        -8.765623355231181
      ],
      [
        "即便",
        -8.76670724778017
      ],
      [
        "书",
        -8.771258194728407
      ],
      [
        "某种",
        -8.771354448457302
      ],
      [
        "托",
        -8.776486994090481
      ],
      [
        "前景",
        -8.777099191549244
      ],
      [
        "统治",
        -8.777829733567401
      ],
      [
        "不管",
        -8.778108715449093
      ],
      [
        "不足",
        -8.778821831938576
      ],
      [
        "专家",
        -8.77939521337513
      ],
      [
        "思想",
        -8.77965459935957
      ],
      [
        "打击",
        -8.781984921463865
      ],
      [
        "的原因",
        -8.782133900683828
      ],
      [
        "仅仅",
        -8.783737084437998
      ],
      [
        "收益",
        -8.784099015732544
      ],
      [
        "兰",
        -8.784171782364126
      ],
      [
        "国际货币基金组织",
        -8.787027304087115
      ],
      [
        "的情况",
        -8.787688291260622
      ],
      [
        "交",
        -8.789679382154329
      ],
      [
        "首",
        -8.790313284511818
      ],
      [
        "调查",
        -8.79242339802778
      ],
      [
        "真",
        -8.792931564304276
      ],
      [
        "议会",
        -8.793108122446688
      ],
      [
        "别",
        -8.793243531144423
      ],
      [
        "现有",
        -8.793697355086532
      ],
      [
        "并不是",
        -8.794151718823308
      ],
      [
        "俄国",
        -8.794509663485965
      ],
      [
        "进口",
        -8.795226084238632
      ],
      [
        "白",
        -8.795329483621014
      ],
      [
        "商品",
        -8.796864567654348
      ],
      [
        "共和党",
        -8.797683364998154
      ],
      [
        "的方式",
        -8.797737355727286
      ],
      [
        "反应",
        -8.801260601460813
      ],
      [
        "本国",
        -8.801805274022762
      ],
      [
        "断",
        -8.802712531263431
      ],
      [
        "费",
        -8.804262882232555
      ],
      [
        "靠",
        -8.8043636340075
      ],
      [
        "就像",
        -8.804403274040904
      ],
      [
        "政",
        -8.804424442919252
      ],
      [
        "体制",
        -8.806700677982725
      ],
      [
        "引",
        -8.806881598470905
      ],
      [
        "职",
        -8.807726161554836
      ],
      [
        "失业",
        -8.808317333192058
      ],
      [
        "岛",
        -8.808447097424498
      ],
      [
        "设计",
        -8.808531791918728
      ],
      [
        "危险",
        -8.811071641208374
      ],
      [
        "想要",
        -8.811610721867066
      ],
      [
        "布什",
        -8.816440355650766
      ],
      [
        "亲",
        -8.816504994908765
      ],
      [
        "进展",
        -8.816646641130774
      ],
      [
        "目的",
        -8.817233664895529
      ],
      [
        "策略",
        -8.819347836928188
      ],
      [
        "私",
        -8.819459236629847
      ],
      [
        "零",
        -8.822035289642614
      ],
      [
        "六",
        -8.82207129957634
      ],
      [
        "普遍",
        -8.822097482296883
      ],
      [
        "放弃",
        -8.822128594451808
      ],
      [
        "现象",
        -8.822193878939723
      ],
      [
        "了一个",
        -8.823306525273557
      ],
      [
        "底",
        -8.823473578636067
      ],
      [
        "持有",
        -8.824088416163422
      ],
      [
        "有人",
        -8.825976148215549
      ],
      [
        "确定",
        -8.82774829078437
      ],
      [
        "击",
        -8.829844048728805
      ],
      [
        "统一",
        -8.829957057021883
      ],
      [
        "假",
        -8.830269521512564
      ],
      [
        "群体",
        -8.830646178534485
      ],
      [
        "经常",
        -8.830917764349916
      ],
      [
        "联合",
        -8.830934151401511
      ],
      [
        "接",
        -8.831903732859516
      ],
      [
        "车",
        -8.83307983807967
      ],
      [
        "执政",
        -8.83320697959581
      ],
      [
        "支付",
        -8.833362438874222
      ],
      [
        "区域",
        -8.83418803509636
      ],
      [
        "ic",
        -8.834607707874083
      ],
      [
        "问",
        -8.835689022169039
      ],
      [
        "激励",
        -8.835884082117818
      ],
      [
        "军队",
        -8.836164922340078
      ],
      [
        "引起",
        -8.83721035247905
      ],
      [
        "工业",
        -8.837973888929564
      ],
      [
        "端",
        -8.838310842114396
      ],
      [
        "具体",
        -8.83986935157986
      ],
      [
        "它们的",
        -8.839913838981765
      ],
      [
        "批评",
        -8.840815225858229
      ],
      [
        "常常",
        -8.841747075438942
      ],
      [
        "的能力",
        -8.842723950795028
      ],
      [
        "并未",
        -8.843655882799053
      ],
      [
        "份",
        -8.84396694937674
      ],
      [
        "也有",
        -8.844114119021022
      ],
      [
        "冲击",
        -8.844329996272435
      ],
      [
        "理论",
        -8.845190846044789
      ],
      [
        "限",
        -8.845403853988152
      ],
      [
        "争论",
        -8.846795769053063
      ],
      [
        "政客",
        -8.847173016264804
      ],
      [
        "不但",
        -8.847545638431784
      ],
      [
        "死",
        -8.848417725442195
      ],
      [
        "规定",
        -8.8485227318094
      ],
      [
        "w",
        -8.849825915462667
      ],
      [
        "萨",
        -8.84988924916895
      ],
      [
        "值得",
        -8.851566572309693
      ],
      [
        "差",
        -8.852424614207466
      ],
      [
        "更大的",
        -8.852529236590044
      ],
      [
        "贡献",
        -8.85271591727096
      ],
      [
        "超",
        -8.853554047755077
      ],
      [
        "债",
        -8.854624183740167
      ],
      [
        "也不",
        -8.854712000797262
      ],
      [
        "领",
        -8.854726380847676
      ],
      [
        "谁",
        -8.85554720705699
      ],
      [
        "团结",
        -8.855627993390133
      ],
      [
        "这样做",
        -8.856827560233008
      ],
      [
        "协定",
        -8.858399120311606
      ],
      [
        "例如",
        -8.858713195758309
      ],
      [
        "供应",
        -8.860651472660837
      ],
      [
        "武器",
        -8.86084869118587
      ],
      [
        "很难",
        -8.861668405237051
      ],
      [
        "降",
        -8.86268159680608
      ],
      [
        "建议",
        -8.86317065543161
      ],
      [
        "对此",
        -8.863459577034497
      ],
      [
        "15",
        -8.863587433111189
      ],
      [
        "一年",
        -8.865219634234654
      ],
      [
        "发自",
        -8.865861181290912
      ],
      [
        "以上",
        -8.86649683085156
      ],
      [
        "视为",
        -8.869289138773537
      ],
      [
        "事务",
        -8.870058154929067
      ],
      [
        "一定",
        -8.871131355995889
      ],
      [
        "投入",
        -8.873019351130464
      ],
      [
        "报",
        -8.874514568731001
      ],
      [
        "分裂",
        -8.876387523129203
      ],
      [
        "方向",
        -8.877738289673214
      ],
      [
        "工程",
        -8.87848255534497
      ],
      [
        "巴黎",
        -8.87852996930362
      ],
      [
        "也将",
        -8.878549807559082
      ],
      [
        "提升",
        -8.878606658289518
      ],
      [
        "方面的",
        -8.878976464502966
      ],
      [
        "普",
        -8.88056283359846
      ],
      [
        "其实",
        -8.880596478104806
      ],
      [
        "势力",
        -8.880971895275351
      ],
      [
        "的机会",
        -8.881169038710294
      ],
      [
        "曼",
        -8.88141069680228
      ],
      [
        "K",
        -8.881410699844961
      ],
      [
        "一系列",
        -8.881412023866918
      ],
      [
        "苏联",
        -8.881471114007466
      ],
      [
        "根本",
        -8.881699310737206
      ],
      [
        "联",
        -8.882848402679912
      ],
      [
        "欧洲人",
        -8.883038470714826
      ],
      [
        "世界银行",
        -8.883160281418988
      ],
      [
        "官方",
        -8.884523090406416
      ],
      [
        "国际社会",
        -8.887031665009395
      ],
      [
        "墨西哥",
        -8.887250129312495
      ],
      [
        "2009年",
        -8.887252349785275
      ],
      [
        "则是",
        -8.887310073442215
      ],
      [
        "结",
        -8.887805477150312
      ],
      [
        "的观点",
        -8.887811908508706
      ],
      [
        "福利",
        -8.88833327395422
      ],
      [
        "演",
        -8.889045663006643
      ],
      [
        "18",
        -8.889381687334382
      ],
      [
        "可持续",
        -8.890435008951519
      ],
      [
        "了解",
        -8.890869092854176
      ],
      [
        "是因为",
        -8.891926011435613
      ],
      [
        "阶段",
        -8.893123856142322
      ],
      [
        "2013年",
        -8.89312502725761
      ],
      [
        "共识",
        -8.893160070768253
      ],
      [
        "精神",
        -8.893216092913327
      ],
      [
        "停止",
        -8.893240517188259
      ],
      [
        "产业",
        -8.894653500159858
      ],
      [
        "密",
        -8.895686281666734
      ],
      [
        "之中",
        -8.89833924251429
      ],
      [
        "压",
        -8.898784923152585
      ],
      [
        "袭击",
        -8.898996707601682
      ],
      [
        "2012年",
        -8.899033950087828
      ],
      [
        "赢得",
        -8.899070072668898
      ],
      [
        "破产",
        -8.899104632117062
      ],
      [
        "真实",
        -8.899289390949864
      ],
      [
        "早",
        -8.900940990687793
      ],
      [
        "状态",
        -8.902012596052547
      ],
      [
        "便",
        -8.902041903409748
      ],
      [
        "失业率",
        -8.902403512345977
      ],
      [
        "增",
        -8.903101290682624
      ],
      [
        "局面",
        -8.903170354290822
      ],
      [
        "证",
        -8.9035874915877
      ],
      [
        "核心",
        -8.903625492953772
      ],
      [
        "广泛",
        -8.90414057440881
      ],
      [
        "最高",
        -8.904328926651722
      ],
      [
        "不平等",
        -8.904620050093499
      ],
      [
        "该地区",
        -8.905108647961452
      ],
      [
        "增长率",
        -8.9062356351196
      ],
      [
        "效",
        -8.907664687666081
      ],
      [
        "香港",
        -8.907964860931465
      ],
      [
        "制裁",
        -8.91106404112746
      ],
      [
        "都会",
        -8.91131237331602
      ],
      [
        "而非",
        -8.91288381148191
      ],
      [
        "这类",
        -8.913304468340664
      ],
      [
        "失去",
        -8.91415313646268
      ],
      [
        "面临着",
        -8.915955330428806
      ],
      [
        "连",
        -8.91600746062609
      ],
      [
        "住",
        -8.916633391896195
      ],
      [
        "负担",
        -8.916800150512362
      ],
      [
        "照",
        -8.916841255328084
      ],
      [
        "求",
        -8.916878972705074
      ],
      [
        "泡沫",
        -8.916969975853826
      ],
      [
        "至关重要",
        -8.916970380336002
      ],
      [
        "债权人",
        -8.91697999017638
      ],
      [
        "恶化",
        -8.917422605504512
      ],
      [
        "几十年",
        -8.917431330097763
      ],
      [
        "各种",
        -8.918950091571654
      ],
      [
        "显著",
        -8.920015591479569
      ],
      [
        "符合",
        -8.920068833265564
      ],
      [
        "想象",
        -8.920233782102304
      ],
      [
        "强大的",
        -8.920885841979253
      ],
      [
        "流动性",
        -8.92185283482248
      ],
      [
        "000",
        -8.922735633441587
      ],
      [
        "空间",
        -8.923576653370729
      ],
      [
        "吸引",
        -8.923929601828938
      ],
      [
        "许多人",
        -8.927753336719121
      ],
      [
        "时候",
        -8.927783490352608
      ],
      [
        "居",
        -8.929528461799034
      ],
      [
        "恐怖主义",
        -8.929777778889575
      ],
      [
        "当今",
        -8.930236583849139
      ],
      [
        "一点",
        -8.930894055737703
      ],
      [
        "的国际",
        -8.931990282973484
      ],
      [
        "层",
        -8.932374710037102
      ],
      [
        "讲",
        -8.933130826921115
      ],
      [
        "议",
        -8.933733486810137
      ],
      [
        "离",
        -8.93434677006373
      ],
      [
        "特别",
        -8.93503824895134
      ],
      [
        "伊",
        -8.935178817643695
      ],
      [
        "适应",
        -8.935312141880715
      ],
      [
        "正确",
        -8.93591782602941
      ],
      [
        "容易",
        -8.938650078335282
      ],
      [
        "仅",
        -8.938847534987573
      ],
      [
        "办法",
        -8.940392434103323
      ],
      [
        "效果",
        -8.941334819257865
      ],
      [
        "平等",
        -8.941473522445778
      ],
      [
        "2015年",
        -8.941548389282016
      ],
      [
        "的结果",
        -8.94231073764627
      ],
      [
        "效应",
        -8.944295212266743
      ],
      [
        "退出",
        -8.94682886653316
      ],
      [
        "保险",
        -8.94692596045515
      ],
      [
        "严重的",
        -8.94713929343217
      ],
      [
        "为何",
        -8.947600654860137
      ],
      [
        "好处",
        -8.947612994277808
      ],
      [
        "这些国家",
        -8.948445146735487
      ],
      [
        "信心",
        -8.948561426431917
      ],
      [
        "有些",
        -8.948590350269544
      ],
      [
        "斗争",
        -8.948717462857207
      ],
      [
        "世纪",
        -8.950588214359197
      ],
      [
        "形式",
        -8.95182694702904
      ],
      [
        "乱",
        -8.95374821943822
      ],
      [
        "合理",
        -8.95385304003182
      ],
      [
        "邻国",
        -8.95511593654274
      ],
      [
        "人士",
        -8.956202681610272
      ],
      [
        "装",
        -8.956742914291315
      ],
      [
        "一半",
        -8.956888979426363
      ],
      [
        "教训",
        -8.956989297500453
      ],
      [
        "片",
        -8.957412470967778
      ],
      [
        "多少",
        -8.95848139294609
      ],
      [
        "相比",
        -8.958920079875716
      ],
      [
        "持",
        -8.959252156798115
      ],
      [
        "障碍",
        -8.960120330220988
      ],
      [
        "补贴",
        -8.960136169729644
      ],
      [
        "左右",
        -8.960866871285386
      ],
      [
        "60",
        -8.962045575616678
      ],
      [
        "知识",
        -8.963213446454873
      ],
      [
        "国会",
        -8.96415035427193
      ],
      [
        "罪",
        -8.9657559910755
      ],
      [
        "转变",
        -8.966204758931985
      ],
      [
        "阿根廷",
        -8.966439066707785
      ],
      [
        "势",
        -8.966651296267411
      ],
      [
        "分配",
        -8.96709114263892
      ],
      [
        "70",
        -8.96744078562577
      ],
      [
        "负责",
        -8.967663059376374
      ],
      [
        "的全球",
        -8.967670071785722
      ],
      [
        "神",
        -8.967932940509542
      ],
      [
        "问题是",
        -8.968997190190233
      ],
      [
        "问题的",
        -8.970548326128378
      ],
      [
        "立法",
        -8.971032946120445
      ],
      [
        "有效的",
        -8.972077199687376
      ],
      [
        "营",
        -8.972113001089594
      ],
      [
        "总是",
        -8.972122998210718
      ],
      [
        "阿拉伯",
        -8.972390639096922
      ],
      [
        "旧",
        -8.97275503488907
      ],
      [
        "取决于",
        -8.972798538019685
      ],
      [
        "普京",
        -8.972809003231529
      ],
      [
        "160",
        -8.973964665954098
      ],
      [
        "也没有",
        -8.975945305070674
      ],
      [
        "所以",
        -8.976580467233347
      ],
      [
        "迫使",
        -8.976657077437164
      ],
      [
        "切",
        -8.977550211010112
      ],
      [
        "痛苦",
        -8.979233614173317
      ],
      [
        "土",
        -8.979273309184654
      ],
      [
        "否则",
        -8.979340337488866
      ],
      [
        "有着",
        -8.98033680160827
      ],
      [
        "民族",
        -8.980403589883691
      ],
      [
        "的作用",
        -8.982050555848847
      ],
      [
        "异",
        -8.98206183078658
      ],
      [
        "储备",
        -8.98240095298918
      ],
      [
        "库",
        -8.982413300185264
      ],
      [
        "精英",
        -8.982511877112348
      ],
      [
        "l",
        -8.983194115807718
      ],
      [
        "消除",
        -8.984247991766228
      ],
      [
        "关",
        -8.984392152327807
      ],
      [
        "索",
        -8.985538484384147
      ],
      [
        "呼吁",
        -8.985640733149449
      ],
      [
        "变革",
        -8.9889186179479
      ],
      [
        "推进",
        -8.98895137365236
      ],
      [
        "北约",
        -8.989090275253655
      ],
      [
        "尤其",
        -8.990414292013002
      ],
      [
        "的增长",
        -8.992156069378764
      ],
      [
        "波动",
        -8.992202352400895
      ],
      [
        "将是",
        -8.993435272892999
      ],
      [
        "退",
        -8.99459151327915
      ],
      [
        "传",
        -8.99514385545503
      ],
      [
        "清楚",
        -8.995392983431733
      ],
      [
        "减",
        -8.99548381497034
      ],
      [
        "更大",
        -8.996386205982407
      ],
      [
        "英",
        -8.996534018087218
      ],
      [
        "v",
        -8.99756883890705
      ],
      [
        "买",
        -8.998198481199466
      ],
      [
        "爱",
        -8.99864778424972
      ],
      [
        "不幸的是",
        -8.998648793988867
      ],
      [
        "类似的",
        -9.004507727924782
      ],
      [
        "久",
        -9.004557350563552
      ],
      [
        "的社会",
        -9.004779114488088
      ],
      [
        "碳",
        -9.005752821723622
      ],
      [
        "广",
        -9.007868743592022
      ],
      [
        "蒙",
        -9.00851643157944
      ],
      [
        "欧盟委员会",
        -9.008607539039833
      ],
      [
        "信贷",
        -9.008611556552616
      ],
      [
        "不同的",
        -9.010590003323195
      ],
      [
        "40",
        -9.01099403623759
      ],
      [
        "坏",
        -9.011708339931484
      ],
      [
        "跟",
        -9.011827690103194
      ],
      [
        "考虑到",
        -9.012753819657409
      ],
      [
        "中央银行",
        -9.012866387217983
      ],
      [
        "将在",
        -9.013461860796035
      ],
      [
        "100",
        -9.015459028847221
      ],
      [
        "类似",
        -9.018246985505332
      ],
      [
        "协调",
        -9.01851681847701
      ],
      [
        "经历",
        -9.018829448623483
      ],
      [
        "增强",
        -9.019027884411802
      ],
      [
        "出现了",
        -9.019362619939162
      ],
      [
        "的利益",
        -9.019554876187978
      ],
      [
        "新兴市场",
        -9.019634347241304
      ],
      [
        "后者",
        -9.020166783215442
      ],
      [
        "从未",
        -9.02020868602052
      ],
      [
        "国民",
        -9.020713827272342
      ],
      [
        "世界经济",
        -9.02083573846408
      ],
      [
        "胜",
        -9.020960952861497
      ],
      [
        "自身的",
        -9.020987396088634
      ],
      [
        "千",
        -9.021549851274658
      ],
      [
        "林",
        -9.021725928602692
      ],
      [
        "朝鲜",
        -9.021763664244805
      ],
      [
        "利润",
        -9.021838632002556
      ],
      [
        "层面",
        -9.0223232900232
      ],
      [
        "保",
        -9.02490585904669
      ],
      [
        "在未来",
        -9.025942993273503
      ],
      [
        "还要",
        -9.026476739903408
      ],
      [
        "更好的",
        -9.027120950223292
      ],
      [
        "借",
        -9.027799153082785
      ],
      [
        "崛起",
        -9.028695279202783
      ],
      [
        "有限",
        -9.031452868374503
      ],
      [
        "角色",
        -9.033455690379025
      ],
      [
        "对其",
        -9.03361251805155
      ],
      [
        "土地",
        -9.034069184479453
      ],
      [
        "这项",
        -9.034268208397592
      ],
      [
        "雷",
        -9.035318677638319
      ],
      [
        "掉",
        -9.035318681129935
      ],
      [
        "缅甸",
        -9.035318681129935
      ],
      [
        "2011年",
        -9.035320772175256
      ],
      [
        "停滞",
        -9.03533285272712
      ],
      [
        "彻底",
        -9.035341955824364
      ],
      [
        "一体化",
        -9.035413895713067
      ],
      [
        "士",
        -9.036068618137193
      ],
      [
        "几年",
        -9.037408073720064
      ],
      [
        "民主党",
        -9.038700259021383
      ],
      [
        "J",
        -9.038719878807244
      ],
      [
        "寻找",
        -9.03965040586817
      ],
      [
        "随后",
        -9.040024752190558
      ],
      [
        "孩子",
        -9.040214774102033
      ],
      [
        "留",
        -9.041223987916482
      ],
      [
        "外交政策",
        -9.041871214479045
      ],
      [
        "要么",
        -9.042287417955102
      ],
      [
        "另一",
        -9.043303428513404
      ],
      [
        "件",
        -9.043639121887171
      ],
      [
        "劳动",
        -9.04466851918771
      ],
      [
        "经验",
        -9.04638583261416
      ],
      [
        "地球",
        -9.047451453484822
      ],
      [
        "根",
        -9.047819753680002
      ],
      [
        "写",
        -9.048781786173201
      ],
      [
        "华",
        -9.048994054036202
      ],
      [
        "依靠",
        -9.04904922175412
      ],
      [
        "除非",
        -9.049194389956831
      ],
      [
        "旨在",
        -9.049663820718528
      ],
      [
        "峰会",
        -9.050638165069046
      ],
      [
        "其它",
        -9.051025437498783
      ],
      [
        "队",
        -9.051676661528806
      ],
      [
        "集",
        -9.052252063608233
      ],
      [
        "往",
        -9.052355323645688
      ],
      [
        "互联网",
        -9.052442379939569
      ],
      [
        "忽视",
        -9.05246048054494
      ],
      [
        "明显",
        -9.052693230840305
      ],
      [
        "技能",
        -9.052747500348556
      ],
      [
        "总体",
        -9.053090619008675
      ],
      [
        "禁",
        -9.053961759386617
      ],
      [
        "也在",
        -9.054604064331341
      ],
      [
        "公平",
        -9.055064706756617
      ],
      [
        "估计",
        -9.055902565448905
      ],
      [
        "无论",
        -9.056244606674507
      ],
      [
        "万亿美元",
        -9.057351482141346
      ],
      [
        "的一个",
        -9.058114450858834
      ],
      [
        "八",
        -9.05937472809628
      ],
      [
        "末",
        -9.059374800305264
      ],
      [
        "通货膨胀",
        -9.059374803595155
      ],
      [
        "监督",
        -9.05937972814969
      ],
      [
        "房地产",
        -9.059408072571763
      ],
      [
        "12",
        -9.061183161132167
      ],
      [
        "资本主义",
        -9.061828821659232
      ],
      [
        "es",
        -9.062941743484732
      ],
      [
        "基因",
        -9.063120781292472
      ],
      [
        "运",
        -9.063616583433493
      ],
      [
        "大国",
        -9.064646438218952
      ],
      [
        "五年",
        -9.065072447836041
      ],
      [
        "的核心",
        -9.065928501330742
      ],
      [
        "民族主义",
        -9.06620852348551
      ],
      [
        "摆脱",
        -9.06640128635332
      ],
      [
        "核武器",
        -9.06686411955133
      ],
      [
        "富",
        -9.06694233460479
      ],
      [
        "话",
        -9.069676071292688
      ],
      [
        "约束",
        -9.06989044212439
      ],
      [
        "领土",
        -9.071077251042352
      ],
      [
        "实行",
        -9.071356014610746
      ],
      [
        "供给",
        -9.07145887143775
      ],
      [
        "容",
        -9.071658195432821
      ],
      [
        "油",
        -9.071708460746512
      ],
      [
        "提振",
        -9.073446992167579
      ],
      [
        "缺少",
        -9.07351016463258
      ],
      [
        "代价",
        -9.07380907172214
      ],
      [
        "古",
        -9.076437447499218
      ],
      [
        "岁",
        -9.076919091954238
      ],
      [
        "股票",
        -9.077013175486812
      ],
      [
        "普通",
        -9.077179609608464
      ],
      [
        "足够",
        -9.077407142273572
      ],
      [
        "所面临的",
        -9.077829677264182
      ],
      [
        "同时也",
        -9.078759375826554
      ],
      [
        "所带来的",
        -9.079266891171233
      ],
      [
        "集中",
        -9.079649851514493
      ],
      [
        "语",
        -9.080093193864954
      ],
      [
        "被迫",
        -9.0802487132285
      ],
      [
        "开支",
        -9.080396512725212
      ],
      [
        "自我",
        -9.080449037930006
      ],
      [
        "山",
        -9.080465191158833
      ],
      [
        "批准",
        -9.080567922900727
      ],
      [
        "未能",
        -9.080816403332364
      ],
      [
        "谈",
        -9.081994129546803
      ],
      [
        "转向",
        -9.082347355688334
      ],
      [
        "助",
        -9.082917295572582
      ],
      [
        "W",
        -9.084023892271436
      ],
      [
        "阻碍",
        -9.084024631824882
      ],
      [
        "发表",
        -9.08457983463184
      ],
      [
        "有利于",
        -9.08483863808429
      ],
      [
        "款",
        -9.085999382271305
      ],
      [
        "范",
        -9.087462017930985
      ],
      [
        "均",
        -9.08790993842533
      ],
      [
        "年轻人",
        -9.088256228135393
      ],
      [
        "犯",
        -9.08835244936768
      ],
      [
        "也可以",
        -9.088591288756627
      ],
      [
        "脆弱",
        -9.089100160878711
      ],
      [
        "治",
        -9.089406944539924
      ],
      [
        "属",
        -9.090037868013955
      ],
      [
        "奇",
        -9.091088305082454
      ],
      [
        "哈马斯",
        -9.091181994905767
      ],
      [
        "攻击",
        -9.09122037250393
      ],
      [
        "质",
        -9.091922334783046
      ],
      [
        "立",
        -9.09296603787355
      ],
      [
        "学生",
        -9.094548109669942
      ],
      [
        "2014年",
        -9.094779271798249
      ],
      [
        "回报",
        -9.094874436315784
      ],
      [
        "投",
        -9.095704604557959
      ],
      [
        "弱",
        -9.096249219496995
      ],
      [
        "举",
        -9.096449353005049
      ],
      [
        "最新",
        -9.096832668458884
      ],
      [
        "违约",
        -9.098462375454435
      ],
      [
        "增加了",
        -9.098676497819149
      ],
      [
        "不应该",
        -9.099984126219272
      ],
      [
        "立场",
        -9.100637102353653
      ],
      [
        "带来了",
        -9.100765434502154
      ],
      [
        "目",
        -9.100955694473427
      ],
      [
        "几个",
        -9.10104209977371
      ],
      [
        "典",
        -9.101911676892776
      ],
      [
        "一旦",
        -9.102009987333881
      ],
      [
        "伤害",
        -9.102071768486624
      ],
      [
        "削弱",
        -9.10694390340652
      ],
      [
        "意识到",
        -9.107142351861095
      ],
      [
        "当地",
        -9.108884281062622
      ],
      [
        "脱",
        -9.10894691345461
      ],
      [
        "证据",
        -9.109140453602617
      ],
      [
        "大选",
        -9.109149461184941
      ],
      [
        "盟友",
        -9.109318346719329
      ],
      [
        "生命",
        -9.109525105673814
      ],
      [
        "采用",
        -9.109756065181207
      ],
      [
        "规",
        -9.110769118145178
      ],
      [
        "恶",
        -9.111892924021827
      ],
      [
        "解决方案",
        -9.112046166011076
      ],
      [
        "威",
        -9.112871368193847
      ],
      [
        "差距",
        -9.112969812141905
      ],
      [
        "在欧洲",
        -9.113759384495772
      ],
      [
        "程序",
        -9.113982567827804
      ],
      [
        "生物",
        -9.114425432373881
      ],
      [
        "重组",
        -9.11442748673562
      ],
      [
        "紧",
        -9.116063230714218
      ],
      [
        "汽车",
        -9.116635460017367
      ],
      [
        "差异",
        -9.116799456909897
      ],
      [
        "直到",
        -9.117510958054073
      ],
      [
        "最近的",
        -9.117517687742836
      ],
      [
        "取得了",
        -9.11890512099561
      ],
      [
        "输",
        -9.118981021197232
      ],
      [
        "命",
        -9.120415920865456
      ],
      [
        "身份",
        -9.120685613352066
      ],
      [
        "生存",
        -9.120975162960102
      ],
      [
        "中国经济",
        -9.121583716271296
      ],
      [
        "怎样",
        -9.124033499834614
      ],
      [
        "el",
        -9.125005579424368
      ],
      [
        "一份",
        -9.125629876546698
      ],
      [
        "就能",
        -9.126101646405278
      ],
      [
        "所需要的",
        -9.126166824321958
      ],
      [
        "股市",
        -9.127230862447309
      ],
      [
        "25",
        -9.127326102153244
      ],
      [
        "正式",
        -9.127729232685981
      ],
      [
        "勒",
        -9.127741476000963
      ],
      [
        "遭到",
        -9.12987251902478
      ],
      [
        "重点",
        -9.129891854830369
      ],
      [
        "主义者",
        -9.130756825905262
      ],
      [
        "质量",
        -9.131143412210509
      ],
      [
        "z",
        -9.131478016010256
      ],
      [
        "第",
        -9.133215556481781
      ],
      [
        "L",
        -9.13332894628082
      ],
      [
        "发挥",
        -9.134972506476979
      ],
      [
        "迪",
        -9.135046733979284
      ],
      [
        "遭受",
        -9.135080468131548
      ],
      [
        "轮",
        -9.135202184408993
      ],
      [
        "我们必须",
        -9.13575175570867
      ],
      [
        "但却",
        -9.13629537515942
      ],
      [
        "今天的",
        -9.1380923537661
      ],
      [
        "观察",
        -9.138474711876853
      ],
      [
        "票",
        -9.138574122574543
      ],
      [
        "概念",
        -9.13898455709807
      ],
      [
        "中国政府",
        -9.139290312964619
      ],
      [
        "不愿",
        -9.139340361678418
      ],
      [
        "的发展",
        -9.139692450350108
      ],
      [
        "预计",
        -9.140895291491688
      ],
      [
        "塔",
        -9.142755951877893
      ],
      [
        "登",
        -9.142756237356732
      ],
      [
        "不得不",
        -9.142947033323788
      ],
      [
        "唯一",
        -9.143179014949224
      ],
      [
        "那就是",
        -9.144360725721047
      ],
      [
        "施",
        -9.146262485979866
      ],
      [
        "理由",
        -9.146332905361383
      ],
      [
        "竞选",
        -9.14654419660324
      ],
      [
        "质疑",
        -9.146629873506248
      ],
      [
        "高达",
        -9.147144429028113
      ],
      [
        "最重要的",
        -9.147783583835151
      ],
      [
        "年前",
        -9.147893905023246
      ],
      [
        "而这",
        -9.148181322056377
      ],
      [
        "活",
        -9.148784146810979
      ],
      [
        "政府的",
        -9.149859602699378
      ],
      [
        "省",
        -9.150346477920916
      ],
      [
        "卖",
        -9.150346477920916
      ],
      [
        "相互",
        -9.150552240367713
      ],
      [
        "付出",
        -9.150681203239284
      ],
      [
        "暴",
        -9.151085333109297
      ],
      [
        "加剧",
        -9.152182659902529
      ],
      [
        "得以",
        -9.15276269271364
      ],
      [
        "也就是",
        -9.153428767516484
      ],
      [
        "印",
        -9.153452553371839
      ],
      [
        "看来",
        -9.15378199222593
      ],
      [
        "鲁",
        -9.154128974220626
      ],
      [
        "思维",
        -9.154383441867779
      ],
      [
        "色",
        -9.154985648472158
      ],
      [
        "它的",
        -9.155556634397847
      ],
      [
        "at",
        -9.157376607832225
      ],
      [
        "最为",
        -9.157833646084626
      ],
      [
        "华盛顿",
        -9.157994546283398
      ],
      [
        "部长",
        -9.158174502240474
      ],
      [
        "大大",
        -9.158456417883041
      ],
      [
        "当选",
        -9.159150081626732
      ],
      [
        "复",
        -9.160454366228787
      ],
      [
        "的确",
        -9.160939733808238
      ],
      [
        "明白",
        -9.161349897678154
      ],
      [
        "边",
        -9.16137635141309
      ],
      [
        "信任",
        -9.16176305834177
      ],
      [
        "克林顿",
        -9.16184089325201
      ],
      [
        "都在",
        -9.162890610873598
      ],
      [
        "80",
        -9.162976595291639
      ],
      [
        "毫无",
        -9.163344484305874
      ],
      [
        "造成了",
        -9.164634739789925
      ],
      [
        "优",
        -9.16528557604732
      ],
      [
        "强大",
        -9.165459266100836
      ],
      [
        "导致了",
        -9.165487791536464
      ],
      [
        "血",
        -9.165685455088482
      ],
      [
        "分歧",
        -9.16570184719135
      ],
      [
        "词",
        -9.16572986903871
      ],
      [
        "it",
        -9.165937942816061
      ],
      [
        "北",
        -9.165954878089913
      ],
      [
        "警",
        -9.16648582541768
      ],
      [
        "激进",
        -9.166975842075189
      ],
      [
        "这次",
        -9.168177165630176
      ],
      [
        "种族",
        -9.168703599919152
      ],
      [
        "善",
        -9.169461538328894
      ],
      [
        "毒",
        -9.17292825314766
      ],
      [
        "is",
        -9.173511122356485
      ],
      [
        "集体",
        -9.17376910005108
      ],
      [
        "然后",
        -9.176284073262488
      ],
      [
        "金融机构",
        -9.176381635117593
      ],
      [
        "的可能性",
        -9.176426548890351
      ],
      [
        "个月",
        -9.176685435747352
      ],
      [
        "归",
        -9.17699869735112
      ],
      [
        "永远",
        -9.177116591138887
      ],
      [
        "态度",
        -9.177830096836642
      ],
      [
        "终",
        -9.17889031141245
      ],
      [
        "必要",
        -9.179082746335965
      ],
      [
        "直",
        -9.179629938369903
      ],
      [
        "穷人",
        -9.180434798666209
      ],
      [
        "网",
        -9.180880302330884
      ],
      [
        "急",
        -9.181029636014863
      ],
      [
        "困境",
        -9.181343261214963
      ],
      [
        "指责",
        -9.18135960850168
      ],
      [
        "那里",
        -9.183579075194498
      ],
      [
        "绝",
        -9.18375551268063
      ],
      [
        "比较",
        -9.183851980396659
      ],
      [
        "宏观经济",
        -9.184349283611855
      ],
      [
        "包",
        -9.185012339827978
      ],
      [
        "净",
        -9.185233693223097
      ],
      [
        "不确定性",
        -9.18595808553762
      ],
      [
        "新闻",
        -9.186308934254672
      ],
      [
        "提出了",
        -9.18680109424708
      ],
      [
        "11",
        -9.188212277600034
      ],
      [
        "沙",
        -9.188218223147025
      ],
      [
        "是在",
        -9.189077011050557
      ],
      [
        "潮",
        -9.18915789676111
      ],
      [
        "致力于",
        -9.1891874354518
      ],
      [
        "北京",
        -9.189196422444095
      ],
      [
        "可以通过",
        -9.190181597754108
      ],
      [
        "造",
        -9.190609857974815
      ],
      [
        "服",
        -9.190894127537216
      ],
      [
        "而在",
        -9.19262001570245
      ],
      [
        "黑",
        -9.193000281029892
      ],
      [
        "农民",
        -9.193373097476304
      ],
      [
        "受益",
        -9.193501633177823
      ],
      [
        "随",
        -9.193626836134388
      ],
      [
        "三个",
        -9.193793168562895
      ],
      [
        "回到",
        -9.194676610525445
      ],
      [
        "需",
        -9.194689199239622
      ],
      [
        "果",
        -9.194785722073647
      ],
      [
        "让我们",
        -9.195090709075842
      ],
      [
        "增长的",
        -9.195147380085414
      ],
      [
        "欧盟的",
        -9.196372741780266
      ],
      [
        "倒",
        -9.196762344706425
      ],
      [
        "诺",
        -9.197095214583388
      ],
      [
        "世界上",
        -9.197099072838089
      ],
      [
        "构建",
        -9.197138448351133
      ],
      [
        "赫",
        -9.197138526202364
      ],
      [
        "答案",
        -9.197153730347502
      ],
      [
        "衡量",
        -9.197180451004341
      ],
      [
        "混乱",
        -9.197196267603065
      ],
      [
        "假设",
        -9.197234238999869
      ],
      [
        "建",
        -9.197750275608586
      ],
      [
        "远远",
        -9.197995453077436
      ],
      [
        "都不",
        -9.20030228944332
      ],
      [
        "全部",
        -9.20033632661664
      ],
      [
        "若",
        -9.20104434337718
      ],
      [
        "圣",
        -9.201092726004383
      ],
      [
        "的行为",
        -9.20131874696175
      ],
      [
        "两大",
        -9.203397394289505
      ],
      [
        "即将",
        -9.203994962967663
      ],
      [
        "一条",
        -9.20497068506982
      ],
      [
        "管",
        -9.206675137557832
      ],
      [
        "境",
        -9.208313435161251
      ],
      [
        "的投资",
        -9.208804249296321
      ],
      [
        "的一部分",
        -9.209429997633144
      ],
      [
        "将其",
        -9.209618946140733
      ],
      [
        "股",
        -9.210188948739777
      ],
      [
        "因为它",
        -9.210372485826849
      ],
      [
        "经济发展",
        -9.211404221441828
      ],
      [
        "最大",
        -9.2117725637977
      ],
      [
        "的挑战",
        -9.212176213298886
      ],
      [
        "支",
        -9.212391634630126
      ],
      [
        "字",
        -9.212786874179056
      ],
      [
        "司法",
        -9.21296814861493
      ],
      [
        "禁止",
        -9.21342777631631
      ],
      [
        "武装",
        -9.213535801018608
      ],
      [
        "理想",
        -9.214771541495335
      ],
      [
        "of",
        -9.215528458544462
      ],
      [
        "制造业",
        -9.215541478581233
      ],
      [
        "美国和",
        -9.216792590317278
      ],
      [
        "资产负债表",
        -9.217300601893445
      ],
      [
        "爱尔兰",
        -9.217300704768334
      ],
      [
        "类似地",
        -9.217398825822272
      ],
      [
        "精",
        -9.217601527997093
      ],
      [
        "对抗",
        -9.21846173400307
      ],
      [
        "方针",
        -9.21905228419985
      ],
      [
        "合法性",
        -9.21920394692959
      ],
      [
        "预",
        -9.219860005385964
      ],
      [
        "乐观",
        -9.221525492450635
      ],
      [
        "真的",
        -9.222205342395329
      ],
      [
        "发布",
        -9.222283186134419
      ],
      [
        "举行",
        -9.223917739950576
      ],
      [
        "转移",
        -9.224359683736951
      ],
      [
        "农",
        -9.22477645800085
      ],
      [
        "得到了",
        -9.225426603942303
      ],
      [
        "扮演",
        -9.225487092439316
      ],
      [
        "人的",
        -9.225542008053491
      ],
      [
        "通缩",
        -9.225591842582965
      ],
      [
        "and",
        -9.227439116184645
      ],
      [
        "思",
        -9.227473636028435
      ],
      [
        "福",
        -9.229073948242876
      ],
      [
        "替代",
        -9.229447696015264
      ],
      [
        "激",
        -9.229750389290096
      ],
      [
        "智利",
        -9.229918920886693
      ],
      [
        "群",
        -9.229966618919601
      ],
      [
        "众多",
        -9.230466238251111
      ],
      [
        "杀",
        -9.230957246666701
      ],
      [
        "来源",
        -9.232057091275466
      ],
      [
        "候选人",
        -9.23233121128606
      ],
      [
        "例",
        -9.232888221793324
      ],
      [
        "停",
        -9.233358560117576
      ],
      [
        "的那样",
        -9.2336595028225
      ],
      [
        "测试",
        -9.233764141040757
      ],
      [
        "争议",
        -9.233831132279178
      ],
      [
        "取消",
        -9.23393791356288
      ],
      [
        "波兰",
        -9.233986465231165
      ],
      [
        "带来的",
        -9.234004469174248
      ],
      [
        "两年",
        -9.234738499924578
      ],
      [
        "产量",
        -9.234765052483334
      ],
      [
        "多边",
        -9.235419270652077
      ],
      [
        "50年",
        -9.235492080692273
      ],
      [
        "房",
        -9.237205055120505
      ],
      [
        "排放",
        -9.237270516389266
      ],
      [
        "免",
        -9.23750556539257
      ],
      [
        "以前",
        -9.237586343894444
      ],
      [
        "主导",
        -9.237856472591385
      ],
      [
        "的未来",
        -9.238398321410145
      ],
      [
        "内容",
        -9.238587114680819
      ],
      [
        "发行",
        -9.239089127333799
      ],
      [
        "赛",
        -9.240892584023886
      ],
      [
        "任务",
        -9.241327837558082
      ],
      [
        "个国家",
        -9.241483369708565
      ],
      [
        "很少",
        -9.242579512105856
      ],
      [
        "消",
        -9.24281888535726
      ],
      [
        "时刻",
        -9.24293106913229
      ],
      [
        "货币联盟",
        -9.244103503355522
      ],
      [
        "救",
        -9.246052068950362
      ],
      [
        "销",
        -9.246158303443659
      ],
      [
        "获得了",
        -9.246206718655522
      ],
      [
        "但如果",
        -9.24648713502915
      ],
      [
        "对话",
        -9.246790741401975
      ],
      [
        "独",
        -9.249549210799035
      ],
      [
        "客",
        -9.250123937924336
      ],
      [
        "吉",
        -9.250429445383894
      ],
      [
        "签署",
        -9.250452195363463
      ],
      [
        "指标",
        -9.25057273482784
      ],
      [
        "的同时",
        -9.250770718424839
      ],
      [
        "速度",
        -9.250800436828811
      ],
      [
        "台",
        -9.252637771105313
      ],
      [
        "这个问题",
        -9.253324430442303
      ],
      [
        "的努力",
        -9.254506500858088
      ],
      [
        "姆",
        -9.254648327314015
      ],
      [
        "社区",
        -9.254908443494319
      ],
      [
        "伙伴",
        -9.257424511435715
      ],
      [
        "就必须",
        -9.257806862522067
      ],
      [
        "造成的",
        -9.258320512753658
      ],
      [
        "备",
        -9.25849480306957
      ],
      [
        "反映了",
        -9.258660616917489
      ],
      [
        "蒂",
        -9.25888649989194
      ],
      [
        "拯救",
        -9.258886499904913
      ],
      [
        "粮食",
        -9.25889440900622
      ],
      [
        "理念",
        -9.258932148811756
      ],
      [
        "抑制",
        -9.25898872170399
      ],
      [
        "感觉",
        -9.259015995254849
      ],
      [
        "潜力",
        -9.259190365642867
      ],
      [
        "众",
        -9.259275922630987
      ],
      [
        "的长期",
        -9.259805697653372
      ],
      [
        "属于",
        -9.260238347015653
      ],
      [
        "少数",
        -9.261334241054556
      ],
      [
        "走向",
        -9.26203101573793
      ],
      [
        "强烈",
        -9.263212685764191
      ],
      [
        "ol",
        -9.263234367813107
      ],
      [
        "访问",
        -9.26326278383911
      ],
      [
        "ra",
        -9.263330744408904
      ],
      [
        "贫穷",
        -9.263370785480056
      ],
      [
        "全球变暖",
        -9.263584029552572
      ],
      [
        "事情",
        -9.264586896279438
      ],
      [
        "我们需要",
        -9.264839592555434
      ],
      [
        "不仅仅是",
        -9.265105472523393
      ],
      [
        "余",
        -9.265981130482249
      ],
      [
        "伦",
        -9.267115863416944
      ],
      [
        "量化宽松",
        -9.267415534900238
      ],
      [
        "le",
        -9.267994209016173
      ],
      [
        "另外",
        -9.268256573037117
      ],
      [
        "分子",
        -9.269072986250908
      ],
      [
        "森",
        -9.271585969449909
      ],
      [
        "洛",
        -9.271707167235814
      ],
      [
        "巨额",
        -9.271906033451407
      ],
      [
        "成就",
        -9.272688000957425
      ],
      [
        "出了",
        -9.27400500756
      ],
      [
        "民粹主义",
        -9.274516936464554
      ],
      [
        "才是",
        -9.275031858262869
      ],
      [
        "放缓",
        -9.275040506892225
      ],
      [
        "告",
        -9.275593517124982
      ],
      [
        "飞",
        -9.275843740484884
      ],
      [
        "多年",
        -9.275862152898341
      ],
      [
        "莱",
        -9.276017292717373
      ],
      [
        "化石燃料",
        -9.276017630881867
      ],
      [
        "绿色",
        -9.276040593557983
      ],
      [
        "形势",
        -9.276118609417583
      ],
      [
        "足以",
        -9.276407428359224
      ],
      [
        "说明",
        -9.27696712410144
      ],
      [
        "启动",
        -9.277063992587305
      ],
      [
        "置",
        -9.277805704199626
      ],
      [
        "这将",
        -9.278451641651674
      ],
      [
        "干",
        -9.278559321254011
      ],
      [
        "支持者",
        -9.27856276484575
      ],
      [
        "的政府",
        -9.27880992555172
      ],
      [
        "顿",
        -9.280346431722803
      ],
      [
        "缺陷",
        -9.280377209358765
      ],
      [
        "学习",
        -9.280628448650141
      ],
      [
        "地区的",
        -9.280933373779286
      ],
      [
        "引入",
        -9.28095658091058
      ],
      [
        "很可能",
        -9.281137477405704
      ],
      [
        "相当于",
        -9.282831579917346
      ],
      [
        "高度",
        -9.284132493308839
      ],
      [
        "幕",
        -9.284694344053989
      ],
      [
        "医生",
        -9.284825707279639
      ],
      [
        "鉴于",
        -9.284995404906141
      ],
      [
        "糟糕",
        -9.288566576173416
      ],
      [
        "给予",
        -9.289145332940024
      ],
      [
        "学校",
        -9.290509213540517
      ],
      [
        "球",
        -9.290543507503195
      ],
      [
        "的世界",
        -9.291333763951371
      ],
      [
        "90",
        -9.29160097062952
      ],
      [
        "其次",
        -9.291823405531153
      ],
      [
        "上涨",
        -9.292596523489173
      ],
      [
        "财政政策",
        -9.293416719285602
      ],
      [
        "届",
        -9.293447121193342
      ],
      [
        "妥协",
        -9.29345020776043
      ],
      [
        "动力",
        -9.293466181510821
      ],
      [
        "缓慢",
        -9.293486876465142
      ],
      [
        "遭遇",
        -9.29359550454378
      ],
      [
        "安排",
        -9.293641082968055
      ],
      [
        "还没有",
        -9.293654676113086
      ],
      [
        "社",
        -9.295358446767418
      ],
      [
        "有时",
        -9.296044971674853
      ],
      [
        "恐怖",
        -9.296659450138286
      ],
      [
        "定义",
        -9.296706112675311
      ],
      [
        "双方",
        -9.297254488311921
      ],
      [
        "护",
        -9.297455368716147
      ],
      [
        "都有",
        -9.29767265151807
      ],
      [
        "恩",
        -9.297852366659757
      ],
      [
        "发生的",
        -9.298053004253958
      ],
      [
        "加速",
        -9.298084728326508
      ],
      [
        "日程",
        -9.298188002029793
      ],
      [
        "am",
        -9.29919083297333
      ],
      [
        "化的",
        -9.302060154314407
      ],
      [
        "角度",
        -9.30209528921686
      ],
      [
        "危险的",
        -9.302195673900163
      ],
      [
        "记录",
        -9.302309999242466
      ],
      [
        "对美国",
        -9.303080364579541
      ],
      [
        "道路",
        -9.30340630961609
      ],
      [
        "st",
        -9.303800223676841
      ],
      [
        "特别是在",
        -9.305201652951446
      ],
      [
        "景",
        -9.30534408419414
      ],
      [
        "养",
        -9.306582510306322
      ],
      [
        "博",
        -9.306720141779275
      ],
      [
        "成功的",
        -9.306862364558953
      ],
      [
        "边境",
        -9.307253654785312
      ],
      [
        "何",
        -9.307601262423388
      ],
      [
        "作出",
        -9.308681649243603
      ],
      [
        "是一种",
        -9.308823807651418
      ],
      [
        "全国",
        -9.309334531378594
      ],
      [
        "GDP增长",
        -9.309447628705932
      ],
      [
        "污染",
        -9.311156333996715
      ],
      [
        "中产阶级",
        -9.311186327623233
      ],
      [
        "荷兰",
        -9.311217181825494
      ],
      [
        "当前的",
        -9.311343900994812
      ],
      [
        "抗",
        -9.312712234613278
      ],
      [
        "成果",
        -9.312916021895067
      ],
      [
        "的承诺",
        -9.314534875637461
      ],
      [
        "待",
        -9.314818697720927
      ],
      [
        "低于",
        -9.315380120595353
      ],
      [
        "退休",
        -9.31544988198418
      ],
      [
        "毫无疑问",
        -9.315670236904342
      ],
      [
        "价值观",
        -9.318271201466057
      ],
      [
        "略",
        -9.319647074556674
      ],
      [
        "七",
        -9.320174725893988
      ],
      [
        "癌症",
        -9.320211710833895
      ],
      [
        "展开",
        -9.320324522816684
      ],
      [
        "部队",
        -9.320536171720624
      ],
      [
        "成了",
        -9.321704232743503
      ],
      [
        "ed",
        -9.322321097481012
      ],
      [
        "出来",
        -9.322776124715215
      ],
      [
        "指数",
        -9.32282629342085
      ],
      [
        "一直在",
        -9.323788319977615
      ],
      [
        "拜",
        -9.324590541144676
      ],
      [
        "一代",
        -9.324600302163464
      ],
      [
        "恐惧",
        -9.324704329202309
      ],
      [
        "盈余",
        -9.324708460488623
      ],
      [
        "克服",
        -9.325230815934855
      ],
      [
        "案",
        -9.326529840270666
      ],
      [
        "预防",
        -9.327746339365792
      ],
      [
        "必要的",
        -9.328736713273564
      ],
      [
        "座",
        -9.32924506731727
      ],
      [
        "思考",
        -9.329301820726117
      ],
      [
        "模型",
        -9.329327652673864
      ],
      [
        "发生了",
        -9.329431920128453
      ],
      [
        "具备",
        -9.329471401879667
      ],
      [
        "过程中",
        -9.332648749310373
      ],
      [
        "遗",
        -9.332964313446219
      ],
      [
        "所有人",
        -9.333647374954175
      ],
      [
        "疫苗",
        -9.333811937225699
      ],
      [
        "版",
        -9.333946142483224
      ],
      [
        "美国经济",
        -9.334991852762107
      ],
      [
        "私人部门",
        -9.335065236612447
      ],
      [
        "的财政",
        -9.336084832742733
      ],
      [
        "互相",
        -9.336331490685108
      ],
      [
        "充满",
        -9.337024267641073
      ],
      [
        "高于",
        -9.337790400102607
      ],
      [
        "是个",
        -9.338391374825346
      ],
      [
        "地缘政治",
        -9.338402175459857
      ],
      [
        "百万",
        -9.339462334390774
      ],
      [
        "例子",
        -9.339860180175066
      ],
      [
        "升",
        -9.340062390551903
      ],
      [
        "油价",
        -9.340162774375084
      ],
      [
        "获",
        -9.341260418871018
      ],
      [
        "足",
        -9.341520713424906
      ],
      [
        "败",
        -9.341744673276565
      ],
      [
        "合法",
        -9.342041288331604
      ],
      [
        "所谓",
        -9.342295540901432
      ],
      [
        "缺",
        -9.342315096795245
      ],
      [
        "计算",
        -9.342332578540269
      ],
      [
        "接近",
        -9.342665386810797
      ],
      [
        "V",
        -9.34300667938596
      ],
      [
        "农村",
        -9.343043477836982
      ],
      [
        "药物",
        -9.343483453542877
      ],
      [
        "的欧洲",
        -9.344960554291015
      ],
      [
        "以后",
        -9.344985113376536
      ],
      [
        "可以在",
        -9.347247147138976
      ],
      [
        "是如此",
        -9.347508915226097
      ],
      [
        "河",
        -9.34763635684972
      ],
      [
        "尝试",
        -9.347638839922295
      ],
      [
        "能否",
        -9.348062435743651
      ],
      [
        "更高的",
        -9.348426035761149
      ],
      [
        "一般",
        -9.348726252636297
      ],
      [
        "ing",
        -9.348875638356205
      ],
      [
        "劳",
        -9.35020025915981
      ],
      [
        "对中国",
        -9.350732907325238
      ],
      [
        "在中国",
        -9.350835474805915
      ],
      [
        "甚",
        -9.351998791475172
      ],
      [
        "班",
        -9.352287458585685
      ],
      [
        "2007年",
        -9.352292952483559
      ],
      [
        "担任",
        -9.352449126158305
      ],
      [
        "整体",
        -9.352455486167639
      ],
      [
        "电视",
        -9.352710526762895
      ],
      [
        "一起",
        -9.353925024814616
      ],
      [
        "哪",
        -9.354175608232751
      ],
      [
        "同样的",
        -9.35555159195013
      ],
      [
        "as",
        -9.355644314548881
      ],
      [
        "拉美",
        -9.355891385142625
      ],
      [
        "史",
        -9.356904802214652
      ],
      [
        "齐",
        -9.356960389511137
      ],
      [
        "U",
        -9.356960417873703
      ],
      [
        "传播",
        -9.35702071163896
      ],
      [
        "承受",
        -9.357209469256187
      ],
      [
        "特征",
        -9.3572693470695
      ],
      [
        "与美国",
        -9.357481114775366
      ],
      [
        "与其",
        -9.357702641918323
      ],
      [
        "重建",
        -9.357818680230867
      ],
      [
        "警告",
        -9.36070716408047
      ],
      [
        "莫",
        -9.36146944232728
      ],
      [
        "宣称",
        -9.361771611498297
      ],
      [
        "新兴经济体",
        -9.361862730532932
      ],
      [
        "取代",
        -9.3621125446939
      ],
      [
        "政治家",
        -9.363455037299868
      ],
      [
        "息",
        -9.364751584775442
      ],
      [
        "这也是",
        -9.365252142291727
      ],
      [
        "样",
        -9.36559058712503
      ],
      [
        "默",
        -9.366325427853065
      ],
      [
        "是为了",
        -9.36667053470687
      ],
      [
        "尊重",
        -9.366859057897527
      ],
      [
        "历史上",
        -9.367338187756536
      ],
      [
        "看起来",
        -9.367380231210275
      ],
      [
        "变得更加",
        -9.368034518405775
      ],
      [
        "最低",
        -9.368490479189706
      ],
      [
        "生活在",
        -9.368866928416175
      ],
      [
        "东盟",
        -9.369918520629557
      ],
      [
        "帝国",
        -9.370012676831475
      ],
      [
        "但它",
        -9.370092484293504
      ],
      [
        "的东西",
        -9.370105987917748
      ],
      [
        "朝",
        -9.370180564173785
      ],
      [
        "贫",
        -9.370808754838134
      ],
      [
        "盛",
        -9.371111560190819
      ],
      [
        "描述",
        -9.371121168578675
      ],
      [
        "站",
        -9.37237685513998
      ],
      [
        "科学家",
        -9.372923857865494
      ],
      [
        "周期",
        -9.374078153695333
      ],
      [
        "塞",
        -9.375873195906824
      ],
      [
        "局势",
        -9.376180594013775
      ],
      [
        "14",
        -9.37622534526708
      ],
      [
        "满",
        -9.376602581331412
      ],
      [
        "活力",
        -9.376704310051284
      ],
      [
        "许",
        -9.377620342135565
      ],
      [
        "之处",
        -9.379364456574306
      ],
      [
        "不满",
        -9.380000893934561
      ],
      [
        "伤",
        -9.38051739402419
      ],
      [
        "顺",
        -9.380658083891882
      ],
      [
        "红",
        -9.38065816493603
      ],
      [
        "紧密",
        -9.38083711785034
      ],
      [
        "理性",
        -9.380927664225904
      ],
      [
        "在这个",
        -9.381563210023124
      ],
      [
        "患者",
        -9.381823846755154
      ],
      [
        "大陆",
        -9.382002800165825
      ],
      [
        "目前的",
        -9.383047033506095
      ],
      [
        "就可以",
        -9.383056651077583
      ],
      [
        "劳动力市场",
        -9.383494743395751
      ],
      [
        "这就是",
        -9.3837388239864
      ],
      [
        "官僚",
        -9.384428641447666
      ],
      [
        "慢",
        -9.385417654037546
      ],
      [
        "天然气",
        -9.385463235728377
      ],
      [
        "研发",
        -9.385847199220862
      ],
      [
        "准",
        -9.386580058035296
      ],
      [
        "的需求",
        -9.389195744961214
      ],
      [
        "il",
        -9.389948975262687
      ],
      [
        "这一问题",
        -9.39005588020039
      ],
      [
        "捍卫",
        -9.390296775125766
      ],
      [
        "巩固",
        -9.390296775127169
      ],
      [
        "喜欢",
        -9.390315898034862
      ],
      [
        "举措",
        -9.390327016634771
      ],
      [
        "主张",
        -9.39050694608842
      ],
      [
        "团体",
        -9.39056352838569
      ],
      [
        "结论",
        -9.390684756915384
      ],
      [
        "和政治",
        -9.391478822537287
      ],
      [
        "各国政府",
        -9.391733822129748
      ],
      [
        "17",
        -9.391818054581503
      ],
      [
        "发动",
        -9.393164238989744
      ],
      [
        "葡萄牙",
        -9.395151144050669
      ],
      [
        "惊",
        -9.3951741447297
      ],
      [
        "专业",
        -9.395359676491811
      ],
      [
        "资格",
        -9.39572849028617
      ],
      [
        "变成",
        -9.395979283164596
      ],
      [
        "9月",
        -9.396090973071214
      ],
      [
        "冷战",
        -9.397179670748681
      ],
      [
        "产出",
        -9.398495799071034
      ],
      [
        "偏",
        -9.399033274553236
      ],
      [
        "弗",
        -9.400028964600077
      ],
      [
        "送",
        -9.400029192831155
      ],
      [
        "牌",
        -9.400029192831155
      ],
      [
        "委内瑞拉",
        -9.40002919283654
      ],
      [
        "共产主义",
        -9.400030863039492
      ],
      [
        "规划",
        -9.400124969715229
      ],
      [
        "按照",
        -9.400153196786448
      ],
      [
        "首相",
        -9.400502296690382
      ],
      [
        "占据",
        -9.401552760915521
      ],
      [
        "愿",
        -9.402316469391481
      ],
      [
        "记",
        -9.402522775123586
      ],
      [
        "大型",
        -9.403139070964954
      ],
      [
        "官",
        -9.404016210759657
      ],
      [
        "师",
        -9.404521614002611
      ],
      [
        "紧张",
        -9.404926395375387
      ],
      [
        "操纵",
        -9.404939014990708
      ],
      [
        "纳税人",
        -9.404942477950453
      ],
      [
        "2005年",
        -9.405038815346003
      ],
      [
        "诸多",
        -9.405389335259642
      ],
      [
        "早期",
        -9.406046023031942
      ],
      [
        "对待",
        -9.406161480327867
      ],
      [
        "参",
        -9.40660530290321
      ],
      [
        "我的",
        -9.408388714627712
      ],
      [
        "原因是",
        -9.408829300359617
      ],
      [
        "埃",
        -9.409263931247068
      ],
      [
        "菲",
        -9.409857244194196
      ],
      [
        "特殊",
        -9.40990811196584
      ],
      [
        "要想",
        -9.409970531205147
      ],
      [
        "强硬",
        -9.410051215572228
      ],
      [
        "温和",
        -9.411143244567736
      ],
      [
        "以此",
        -9.412586888877746
      ],
      [
        "流动",
        -9.413127399214606
      ],
      [
        "在这方面",
        -9.414095703188217
      ],
      [
        "团",
        -9.414158387372485
      ],
      [
        "害",
        -9.41442220663537
      ],
      [
        "聚",
        -9.414689715741398
      ],
      [
        "弹",
        -9.414955891238982
      ],
      [
        "抵制",
        -9.41503869905738
      ],
      [
        "统计",
        -9.41586778948238
      ],
      [
        "意见",
        -9.41622802952044
      ],
      [
        "肯定",
        -9.417336216675922
      ],
      [
        "学家",
        -9.418123403243584
      ],
      [
        "第一个",
        -9.418322523111598
      ],
      [
        "法院",
        -9.418789087448065
      ],
      [
        "的地方",
        -9.418863401253155
      ],
      [
        "乐",
        -9.419567883242367
      ],
      [
        "象",
        -9.419796660807435
      ],
      [
        "相似",
        -9.419902845181237
      ],
      [
        "疑",
        -9.4203078467397
      ],
      [
        "反对派",
        -9.421513975907695
      ],
      [
        "的做法",
        -9.422019852807637
      ],
      [
        "温",
        -9.422180304864401
      ],
      [
        "li",
        -9.422482814377354
      ],
      [
        "的历史",
        -9.42297953111344
      ],
      [
        "进行了",
        -9.423033492957568
      ],
      [
        "东亚",
        -9.423343980682077
      ],
      [
        "中国领导人",
        -9.423468294252686
      ],
      [
        "副",
        -9.424484512740769
      ],
      [
        "贝",
        -9.424782881332321
      ],
      [
        "账户",
        -9.42481014023861
      ],
      [
        "深刻",
        -9.424927819845067
      ],
      [
        "巨",
        -9.425173915762585
      ],
      [
        "促使",
        -9.42518678673833
      ],
      [
        "表达",
        -9.42529886546241
      ],
      [
        "参加",
        -9.425458970245638
      ],
      [
        "欧洲国家",
        -9.425978713136388
      ],
      [
        "16",
        -9.425998920457138
      ],
      [
        "笔",
        -9.42608630087151
      ],
      [
        "的改革",
        -9.427136750444852
      ],
      [
        "构成",
        -9.42734666472581
      ],
      [
        "决",
        -9.42753425402854
      ],
      [
        "此前",
        -9.42873111324693
      ],
      [
        "起到",
        -9.429011302907846
      ],
      [
        "东西",
        -9.429081203168401
      ],
      [
        "升值",
        -9.430024476534895
      ],
      [
        "边界",
        -9.430042926626312
      ],
      [
        "偿还",
        -9.430453190139914
      ],
      [
        "11月",
        -9.430606335995538
      ],
      [
        "可能是",
        -9.43221236401238
      ],
      [
        "采取行动",
        -9.432318404284107
      ],
      [
        "的重要",
        -9.432782691168839
      ],
      [
        "有一个",
        -9.433759656017006
      ],
      [
        "散",
        -9.434383203383689
      ],
      [
        "哥伦比亚",
        -9.434858512100998
      ],
      [
        "正常",
        -9.435153169821486
      ],
      [
        "由此",
        -9.435321863707443
      ],
      [
        "ur",
        -9.436612063671024
      ],
      [
        "未来的",
        -9.437059214012677
      ],
      [
        "一步",
        -9.437083589544473
      ],
      [
        "民主国家",
        -9.438148604553092
      ],
      [
        "供",
        -9.438557483846212
      ],
      [
        "刚刚",
        -9.439955098501471
      ],
      [
        "减速",
        -9.440016241163388
      ],
      [
        "辩论",
        -9.44005004706285
      ],
      [
        "维护",
        -9.44020823043692
      ],
      [
        "防",
        -9.440229054441305
      ],
      [
        "并在",
        -9.441097326367911
      ],
      [
        "之所以",
        -9.441528411004917
      ],
      [
        "她们",
        -9.441767065450012
      ],
      [
        "的措施",
        -9.442008103401712
      ],
      [
        "但他们",
        -9.442259342311242
      ],
      [
        "还会",
        -9.44249544598432
      ],
      [
        "的研究",
        -9.44349035407506
      ],
      [
        "之上",
        -9.443987045939107
      ],
      [
        "器",
        -9.444636368761008
      ],
      [
        "情况下",
        -9.444676058824395
      ],
      [
        "左翼",
        -9.444722988484187
      ],
      [
        "怀",
        -9.444955648603553
      ],
      [
        "残",
        -9.445012511409864
      ],
      [
        "损害",
        -9.445077918265046
      ],
      [
        "院",
        -9.44522045828969
      ],
      [
        "报道",
        -9.445402661211435
      ],
      [
        "夺",
        -9.446033861249909
      ],
      [
        "族",
        -9.446797727285464
      ],
      [
        "在其",
        -9.447247507694998
      ],
      [
        "驱动",
        -9.448199672061762
      ],
      [
        "始",
        -9.448591359913287
      ],
      [
        "访",
        -9.450019077851387
      ],
      [
        "麦",
        -9.45010204865125
      ],
      [
        "镇压",
        -9.450195518612691
      ],
      [
        "年轻",
        -9.450207336005729
      ],
      [
        "金融体系",
        -9.450544744428765
      ],
      [
        "常规",
        -9.450943153368236
      ],
      [
        "态",
        -9.452951713459441
      ],
      [
        "公正",
        -9.454684201721797
      ],
      [
        "的重要性",
        -9.455092575830253
      ],
      [
        "负债",
        -9.455185450548491
      ],
      [
        "掌握",
        -9.45533470617593
      ],
      [
        "诚然",
        -9.45549610611912
      ],
      [
        "用来",
        -9.455672061162208
      ],
      [
        "公投",
        -9.455738299051522
      ],
      [
        "我们可以",
        -9.456208800656
      ],
      [
        "市场的",
        -9.456415319800367
      ],
      [
        "仍在",
        -9.456653561859042
      ],
      [
        "更有",
        -9.456909690621567
      ],
      [
        "对手",
        -9.457918543148816
      ],
      [
        "的生活",
        -9.458887412666542
      ],
      [
        "的基础",
        -9.458928544076622
      ],
      [
        "ro",
        -9.459174436281838
      ],
      [
        "的时间",
        -9.459599153479399
      ],
      [
        "不平等性",
        -9.459768352457779
      ],
      [
        "料",
        -9.459945644208346
      ],
      [
        "儿",
        -9.46002302989331
      ],
      [
        "坐",
        -9.460500886498139
      ],
      [
        "虚",
        -9.460500886498142
      ],
      [
        "论坛",
        -9.46050887108349
      ],
      [
        "疲软",
        -9.460521328324916
      ],
      [
        "ne",
        -9.461492238856074
      ],
      [
        "相同",
        -9.461741465188114
      ],
      [
        "组",
        -9.462031099174535
      ],
      [
        "ch",
        -9.462183878025838
      ],
      [
        "认识",
        -9.46219039554256
      ],
      [
        "互",
        -9.462195597322985
      ],
      [
        "如果我们",
        -9.46286749701034
      ],
      [
        "更高",
        -9.463838709053944
      ],
      [
        "胜利",
        -9.465076225343235
      ],
      [
        "人数",
        -9.465576010641684
      ],
      [
        "澳大利亚",
        -9.465709219842747
      ],
      [
        "包含",
        -9.46580404875461
      ],
      [
        "12月",
        -9.46634155508553
      ],
      [
        "体现",
        -9.466480972936273
      ],
      [
        "的后果",
        -9.466687987551168
      ],
      [
        "服务业",
        -9.466787295289155
      ],
      [
        "所造成的",
        -9.468707658728158
      ],
      [
        "198",
        -9.469798379102613
      ],
      [
        "的战略",
        -9.470127749349519
      ],
      [
        "追",
        -9.470779301417213
      ],
      [
        "极为",
        -9.47103062640809
      ],
      [
        "也无法",
        -9.47149228173662
      ],
      [
        "推行",
        -9.472294631519212
      ],
      [
        "兴",
        -9.47368439636471
      ],
      [
        "采取了",
        -9.473733591080919
      ],
      [
        "早已",
        -9.474286722880391
      ],
      [
        "执",
        -9.474806606629283
      ],
      [
        "即使是",
        -9.47547824695998
      ],
      [
        "牺牲",
        -9.476207979820453
      ],
      [
        "扩散",
        -9.476232031056329
      ],
      [
        "越来越多的",
        -9.47648292694306
      ],
      [
        "著名",
        -9.476511161950775
      ],
      [
        "套",
        -9.476613946132472
      ],
      [
        "犯罪",
        -9.477615113060297
      ],
      [
        "争",
        -9.477683947443015
      ],
      [
        "欢迎",
        -9.478077082282184
      ],
      [
        "吸引力",
        -9.479996380465959
      ],
      [
        "下去",
        -9.480921309660928
      ],
      [
        "结构性",
        -9.481333336784898
      ],
      [
        "透明",
        -9.48133526908692
      ],
      [
        "按",
        -9.481349637022992
      ],
      [
        "鱼",
        -9.481498984343803
      ],
      [
        "布鲁塞尔",
        -9.481498985136977
      ],
      [
        "愤怒",
        -9.481510592849867
      ],
      [
        "20世纪90年代",
        -9.481512759190888
      ],
      [
        "瑞典",
        -9.481533688309177
      ],
      [
        "紧迫",
        -9.481534563089573
      ],
      [
        "评论",
        -9.481597055683624
      ],
      [
        "首次",
        -9.48209785154008
      ],
      [
        "不要",
        -9.482730646951488
      ],
      [
        "独裁",
        -9.483108300979337
      ],
      [
        "的债务",
        -9.483340511516268
      ],
      [
        "专",
        -9.484993932018075
      ],
      [
        "易",
        -9.485180756048898
      ],
      [
        "轻",
        -9.485543789994034
      ],
      [
        "艾滋病",
        -9.48671348051504
      ],
      [
        "杠杆",
        -9.486817744325018
      ],
      [
        "梅",
        -9.486818096328363
      ],
      [
        "党派",
        -9.487268290454075
      ],
      [
        "决心",
        -9.487271868857515
      ],
      [
        "俄",
        -9.487810143490222
      ],
      [
        "抗议",
        -9.487865841015827
      ],
      [
        "的方法",
        -9.48841723246468
      ],
      [
        "义务",
        -9.488608367020664
      ],
      [
        "担忧",
        -9.488801588567934
      ],
      [
        "出于",
        -9.488989257909427
      ],
      [
        "许多国家",
        -9.489674827144857
      ],
      [
        "过于",
        -9.489729929383666
      ],
      [
        "素",
        -9.490653849503994
      ],
      [
        "于是",
        -9.492010804956552
      ],
      [
        "邦",
        -9.492018131364922
      ],
      [
        "隐",
        -9.492038907992956
      ],
      [
        "失衡",
        -9.492165727651908
      ],
      [
        "发达经济体",
        -9.492339234096873
      ],
      [
        "回归",
        -9.492681174586735
      ],
      [
        "这两个",
        -9.494471580702651
      ],
      [
        "改",
        -9.495707487376345
      ],
      [
        "右翼",
        -9.496003534293788
      ],
      [
        "陷入了",
        -9.496747374628189
      ],
      [
        "无疑",
        -9.49676334758308
      ],
      [
        "一国",
        -9.497019302434383
      ],
      [
        "迟",
        -9.497175167071884
      ],
      [
        "呼",
        -9.497540243729807
      ],
      [
        "国外",
        -9.497641201786784
      ],
      [
        "双",
        -9.498298058927368
      ],
      [
        "铁",
        -9.498810643704974
      ],
      [
        "务",
        -9.499426132561982
      ],
      [
        "序",
        -9.501437603743408
      ],
      [
        "达到了",
        -9.50203462664744
      ],
      [
        "移",
        -9.502228592170788
      ],
      [
        "前所未有的",
        -9.502475288100307
      ],
      [
        "逃",
        -9.50274435812274
      ],
      [
        "尚",
        -9.502744906395925
      ],
      [
        "伯",
        -9.502946887539405
      ],
      [
        "勃",
        -9.502947471440976
      ],
      [
        "煤炭",
        -9.502951097956984
      ],
      [
        "释放",
        -9.503018209058652
      ],
      [
        "的例子",
        -9.504100833899653
      ],
      [
        "的事情",
        -9.504189226768027
      ],
      [
        "这是一个",
        -9.504606627069691
      ],
      [
        "的大",
        -9.505239196705901
      ],
      [
        "两者",
        -9.505474992471116
      ],
      [
        "组合",
        -9.505887238213258
      ],
      [
        "亿欧元",
        -9.506006165027468
      ],
      [
        "每个",
        -9.507062366967698
      ],
      [
        "位于",
        -9.507626763860305
      ],
      [
        "迷",
        -9.507784643205781
      ],
      [
        "乎",
        -9.507939975573047
      ],
      [
        "石",
        -9.508042936055695
      ],
      [
        "捕",
        -9.508376117432135
      ],
      [
        "利比亚",
        -9.508384360705891
      ],
      [
        "绝对",
        -9.508488896170574
      ],
      [
        "欧盟成员国",
        -9.508527205724807
      ],
      [
        "监管者",
        -9.508576203449783
      ],
      [
        "涉及",
        -9.508619397619263
      ],
      [
        "排",
        -9.50867151865318
      ],
      [
        "在内的",
        -9.510809986386231
      ],
      [
        "形",
        -9.510967437130944
      ],
      [
        "正确的",
        -9.512219465418575
      ],
      [
        "但我们",
        -9.512281341837891
      ],
      [
        "手中",
        -9.51245922170894
      ],
      [
        "让他们",
        -9.512918873771333
      ],
      [
        "雅",
        -9.513734175358998
      ],
      [
        "顶",
        -9.51381007262567
      ],
      [
        "习近平",
        -9.513846782737014
      ],
      [
        "动物",
        -9.513888370262036
      ],
      [
        "宣传",
        -9.513926190401111
      ],
      [
        "指导",
        -9.51403569196043
      ],
      [
        "经营",
        -9.514161409104428
      ],
      [
        "几个月",
        -9.51450097755175
      ],
      [
        "的理由",
        -9.516925206219472
      ],
      [
        "邻",
        -9.5170999741948
      ],
      [
        "所有这些",
        -9.517624645382046
      ],
      [
        "短",
        -9.518388761164182
      ],
      [
        "2006年",
        -9.519348487402588
      ],
      [
        "自由化",
        -9.51937517346196
      ],
      [
        "心理",
        -9.520833928809793
      ],
      [
        "表现出",
        -9.521173982999198
      ],
      [
        "东欧",
        -9.521809518731452
      ],
      [
        "冷",
        -9.522561621453981
      ],
      [
        "产生了",
        -9.523067274035647
      ],
      [
        "45",
        -9.523901807815538
      ],
      [
        "换",
        -9.524199518733685
      ],
      [
        "号",
        -9.524427412280598
      ],
      [
        "的压力",
        -9.524769584497655
      ],
      [
        "来看",
        -9.524799203399523
      ],
      [
        "究竟",
        -9.524871179834083
      ],
      [
        "海洋",
        -9.525001453079172
      ],
      [
        "的唯一",
        -9.525994759619987
      ],
      [
        "6月",
        -9.52615343091187
      ],
      [
        "中期",
        -9.52621661799378
      ],
      [
        "的说法",
        -9.52742890837471
      ],
      [
        "管制",
        -9.527651755846819
      ],
      [
        "导",
        -9.528094670708938
      ],
      [
        "身上",
        -9.529020798482016
      ],
      [
        "和社会",
        -9.529701499118984
      ],
      [
        "角",
        -9.529983901728817
      ],
      [
        "划",
        -9.530078752756818
      ],
      [
        "症",
        -9.530353363838916
      ],
      [
        "留在",
        -9.530384238210848
      ],
      [
        "强劲",
        -9.530467389504857
      ],
      [
        "艰难",
        -9.530854757268406
      ],
      [
        "500",
        -9.531196669708528
      ],
      [
        "尽管如此",
        -9.531573568742395
      ],
      [
        "强制",
        -9.531673186720983
      ],
      [
        "在全球",
        -9.53325539980602
      ],
      [
        "居民",
        -9.534992809803732
      ],
      [
        "仅仅是",
        -9.535507708178566
      ],
      [
        "很快",
        -9.53559905476921
      ],
      [
        "灵",
        -9.535744342945332
      ],
      [
        "晚",
        -9.53600825571224
      ],
      [
        "埃博拉",
        -9.536008319450401
      ],
      [
        "共和国",
        -9.53603288691637
      ],
      [
        "孤立",
        -9.536057227285347
      ],
      [
        "廉价",
        -9.536076254676829
      ],
      [
        "高效",
        -9.536171136486294
      ],
      [
        "升级",
        -9.536235917215048
      ],
      [
        "一下",
        -9.536345345114299
      ],
      [
        "某",
        -9.536994027889925
      ],
      [
        "男",
        -9.539526571380122
      ],
      [
        "被视为",
        -9.539743832475612
      ],
      [
        "麻烦",
        -9.541631592642272
      ],
      [
        "所需的",
        -9.541851199348926
      ],
      [
        "超越",
        -9.542096678497195
      ],
      [
        "会导致",
        -9.542481342074339
      ],
      [
        "标",
        -9.543223433443744
      ],
      [
        "领导的",
        -9.546013348473773
      ],
      [
        "的威胁",
        -9.546213494240117
      ],
      [
        "现金",
        -9.54687297559516
      ],
      [
        "含",
        -9.547041387368402
      ],
      [
        "板",
        -9.54718270632698
      ],
      [
        "折",
        -9.547246426607343
      ],
      [
        "恐慌",
        -9.547279030771701
      ],
      [
        "台湾",
        -9.547310516796765
      ],
      [
        "足够的",
        -9.547337154137526
      ],
      [
        "的态度",
        -9.54775876556681
      ],
      [
        "人物",
        -9.547847767317327
      ],
      [
        "也是如此",
        -9.547956137007553
      ],
      [
        "将继续",
        -9.549173013771306
      ],
      [
        "显",
        -9.549358234169652
      ],
      [
        "解放",
        -9.54967228743165
      ],
      [
        "的立场",
        -9.54988232778268
      ],
      [
        "议程",
        -9.551561628561785
      ],
      [
        "之下",
        -9.55238751489541
      ],
      [
        "城",
        -9.55261319869338
      ],
      [
        "信誉",
        -9.553096767123744
      ],
      [
        "语言",
        -9.553353168067684
      ],
      [
        "较低",
        -9.55613684170146
      ],
      [
        "而不",
        -9.558205654851209
      ],
      [
        "智",
        -9.559415139955005
      ],
      [
        "游",
        -9.559415884591342
      ],
      [
        "这些问题",
        -9.55959697633487
      ],
      [
        "另一方面",
        -9.559724876637523
      ],
      [
        "注",
        -9.559761792874022
      ],
      [
        "更好",
        -9.560610507333205
      ],
      [
        "美国政府",
        -9.561093956437777
      ],
      [
        "的资金",
        -9.562653628762195
      ],
      [
        "赞",
        -9.562768659829505
      ],
      [
        "离开",
        -9.56370151226771
      ],
      [
        "不管是",
        -9.563941966064828
      ],
      [
        "试验",
        -9.564430552669874
      ],
      [
        "证券",
        -9.564447089346709
      ],
      [
        "称为",
        -9.564657173205335
      ],
      [
        "入侵",
        -9.564661746812305
      ],
      [
        "存款",
        -9.56468942994234
      ],
      [
        "经济危机",
        -9.565345488653913
      ],
      [
        "大萧条",
        -9.566089301449555
      ],
      [
        "的权利",
        -9.566465279285161
      ],
      [
        "拉丁美洲",
        -9.570199538999017
      ],
      [
        "的成本",
        -9.570225420239606
      ],
      [
        "避",
        -9.570362433725636
      ],
      [
        "et",
        -9.570404148904526
      ],
      [
        "斯特",
        -9.570539020406315
      ],
      [
        "小时",
        -9.570555389216867
      ],
      [
        "此次",
        -9.570645329850311
      ],
      [
        "放在",
        -9.571135517395934
      ],
      [
        "美国总统",
        -9.571985204972965
      ],
      [
        "一天",
        -9.572597881596423
      ],
      [
        "现代化",
        -9.57288995826063
      ],
      [
        "员工",
        -9.573270223378529
      ],
      [
        "很大",
        -9.573465094422195
      ],
      [
        "13",
        -9.574217721235277
      ],
      [
        "后的",
        -9.575310159656098
      ],
      [
        "测",
        -9.575332774043625
      ],
      [
        "布什政府",
        -9.575455945205938
      ],
      [
        "叫",
        -9.57601348139652
      ],
      [
        "受害者",
        -9.576015510515013
      ],
      [
        "黄金",
        -9.576120851496864
      ],
      [
        "尚未",
        -9.576231453082144
      ],
      [
        "一家",
        -9.577719744746084
      ],
      [
        "让人",
        -9.579865904076875
      ],
      [
        "科技",
        -9.580719698761303
      ],
      [
        "固",
        -9.58134956890456
      ],
      [
        "还需要",
        -9.581398193755387
      ],
      [
        "贵",
        -9.581843319037482
      ],
      [
        "佛",
        -9.581861367904828
      ],
      [
        "惨",
        -9.581861434612897
      ],
      [
        "矛盾",
        -9.581862140662073
      ],
      [
        "比方说",
        -9.58186723481523
      ],
      [
        "支撑",
        -9.581875811641511
      ],
      [
        "建筑",
        -9.581885544881777
      ],
      [
        "暴露",
        -9.581953470149715
      ],
      [
        "短缺",
        -9.581955102282311
      ],
      [
        "突然",
        -9.582041275307237
      ],
      [
        "南非",
        -9.582726736134687
      ],
      [
        "应用",
        -9.582901075353218
      ],
      [
        "益",
        -9.585385457875734
      ],
      [
        "也不会",
        -9.585894911778864
      ],
      [
        "跌",
        -9.586603548002618
      ],
      [
        "二战",
        -9.586882208961079
      ],
      [
        "审",
        -9.586987130615297
      ],
      [
        "望",
        -9.587232299237815
      ],
      [
        "星",
        -9.587258491136492
      ],
      [
        "双边",
        -9.587408111287512
      ],
      [
        "2000年",
        -9.587759151203368
      ],
      [
        "另",
        -9.587779617778015
      ],
      [
        "期望",
        -9.588076273486568
      ],
      [
        "言论",
        -9.588137798617147
      ],
      [
        "功能",
        -9.588236054317779
      ],
      [
        "说服",
        -9.589583104708984
      ],
      [
        "组成",
        -9.589654305751012
      ],
      [
        "之时",
        -9.589688112241735
      ],
      [
        "延",
        -9.591211307628889
      ],
      [
        "王",
        -9.591320163195006
      ],
      [
        "述",
        -9.591354234571412
      ],
      [
        "设施",
        -9.591647502947758
      ],
      [
        "的价格",
        -9.591954662257884
      ],
      [
        "中央",
        -9.592280632480012
      ],
      [
        "严",
        -9.592651811633864
      ],
      [
        "单一",
        -9.593022089176799
      ],
      [
        "灾",
        -9.593386144218421
      ],
      [
        "黎巴嫩",
        -9.593660947317389
      ],
      [
        "现状",
        -9.593733122858106
      ],
      [
        "抵消",
        -9.593735102116744
      ],
      [
        "非法",
        -9.593957514328405
      ],
      [
        "的反应",
        -9.594062848977591
      ],
      [
        "名义",
        -9.594072349126783
      ],
      [
        "交通",
        -9.594139308535635
      ],
      [
        "的责任",
        -9.594338866759449
      ],
      [
        "地方政府",
        -9.594706232568164
      ],
      [
        "没能",
        -9.594992701733158
      ],
      [
        "范围内",
        -9.595070357471297
      ],
      [
        "的最佳",
        -9.595370309845464
      ],
      [
        "流行",
        -9.595903681862929
      ],
      [
        "很多人",
        -9.596155342169252
      ],
      [
        "也应该",
        -9.597725103190966
      ],
      [
        "式的",
        -9.598247886484678
      ],
      [
        "的地位",
        -9.598473059364359
      ],
      [
        "额外",
        -9.599097464023505
      ],
      [
        "痛",
        -9.599547838276276
      ],
      [
        "客户",
        -9.599687966534557
      ],
      [
        "回答",
        -9.599708833145838
      ],
      [
        "脱离",
        -9.599829222586713
      ],
      [
        "打破",
        -9.599834134562979
      ],
      [
        "观念",
        -9.601065553066253
      ],
      [
        "各自",
        -9.60120141775614
      ],
      [
        "有了",
        -9.601655341648465
      ],
      [
        "灾难性",
        -9.60198678392733
      ],
      [
        "的成功",
        -9.60240421823202
      ],
      [
        "无力",
        -9.603377489661336
      ],
      [
        "的关系",
        -9.60358033025089
      ],
      [
        "高级",
        -9.605120754331084
      ],
      [
        "示",
        -9.605155382691152
      ],
      [
        "法治",
        -9.605459533088762
      ],
      [
        "脚",
        -9.605601352184934
      ],
      [
        "皇",
        -9.605601352221859
      ],
      [
        "惩罚",
        -9.605601352228788
      ],
      [
        "意识形态",
        -9.605601356137257
      ],
      [
        "固定",
        -9.606082623147437
      ],
      [
        "财政部长",
        -9.606919671763759
      ],
      [
        "有能力",
        -9.606993114247315
      ],
      [
        "都没有",
        -9.608224591664026
      ],
      [
        "不稳定",
        -9.60888329736645
      ],
      [
        "之路",
        -9.608898533933603
      ],
      [
        "比重",
        -9.61045967190502
      ],
      [
        "物质",
        -9.610863295378607
      ],
      [
        "二氧化碳",
        -9.611488830048177
      ],
      [
        "兼",
        -9.611625448607406
      ],
      [
        "实验",
        -9.611712201163758
      ],
      [
        "条款",
        -9.611901998935311
      ],
      [
        "绝非",
        -9.612357934216853
      ],
      [
        "升高",
        -9.613198976206696
      ],
      [
        "每天",
        -9.613322152217286
      ],
      [
        "都将",
        -9.61488881280301
      ],
      [
        "些",
        -9.6151773802622
      ],
      [
        "合理的",
        -9.615916745324999
      ],
      [
        "金融稳定",
        -9.616079308063142
      ],
      [
        "反映",
        -9.617043173929654
      ],
      [
        "全球性",
        -9.617596989033737
      ],
      [
        "皮",
        -9.61768604463344
      ],
      [
        "暂时",
        -9.617759194560243
      ],
      [
        "阵营",
        -9.617766153887374
      ],
      [
        "出售",
        -9.618211777274485
      ],
      [
        "明年",
        -9.618449943046699
      ],
      [
        "也必须",
        -9.619278018934937
      ],
      [
        "费用",
        -9.619982082789111
      ],
      [
        "中国人",
        -9.621031468198035
      ],
      [
        "结果是",
        -9.621268925531691
      ],
      [
        "担保",
        -9.621386329520785
      ],
      [
        "伊斯兰国",
        -9.622182917473246
      ],
      [
        "的地区",
        -9.622312545682487
      ],
      [
        "查",
        -9.623492521210734
      ],
      [
        "的变化",
        -9.62362921688516
      ],
      [
        "自动",
        -9.623653664967511
      ],
      [
        "巧",
        -9.623783615643616
      ],
      [
        "谨慎",
        -9.623783615646119
      ],
      [
        "激烈",
        -9.623822435203984
      ],
      [
        "诊断",
        -9.623860610123167
      ],
      [
        "以下",
        -9.62388116731837
      ],
      [
        "年代",
        -9.62580231939986
      ],
      [
        "系",
        -9.626405412158078
      ],
      [
        "富裕",
        -9.626833338658766
      ],
      [
        "新兴",
        -9.62705451699106
      ],
      [
        "尤",
        -9.62777247331764
      ],
      [
        "给了",
        -9.629665057195126
      ],
      [
        "监",
        -9.629723440314887
      ],
      [
        "婚",
        -9.629918584968774
      ],
      [
        "紧急",
        -9.630091531518936
      ],
      [
        "职业",
        -9.630438082646616
      ],
      [
        "伟大",
        -9.630511567390506
      ],
      [
        "第一次",
        -9.631152360348908
      ],
      [
        "废",
        -9.631329060089161
      ],
      [
        "是由",
        -9.631457325039907
      ],
      [
        "可持续发展",
        -9.631466362816477
      ],
      [
        "特定",
        -9.63387159855598
      ],
      [
        "工业化",
        -9.634413247424426
      ],
      [
        "要比",
        -9.63458263147052
      ],
      [
        "九",
        -9.635210924965978
      ],
      [
        "到目前为止",
        -9.635373323358534
      ],
      [
        "附",
        -9.635636812545412
      ],
      [
        "苦",
        -9.63581217380824
      ],
      [
        "冲",
        -9.635847936402476
      ],
      [
        "牛",
        -9.636072388309085
      ],
      [
        "杰",
        -9.636091424474944
      ],
      [
        "实践",
        -9.636091424511497
      ],
      [
        "股东",
        -9.636378025503749
      ],
      [
        "伊斯兰教",
        -9.637267097483079
      ],
      [
        "声称",
        -9.637474382696524
      ],
      [
        "不少",
        -9.638701125887788
      ],
      [
        "故事",
        -9.640339267577483
      ],
      [
        "一名",
        -9.64114006945196
      ],
      [
        "休",
        -9.64217819337346
      ],
      [
        "怎么",
        -9.642303899682204
      ],
      [
        "培训",
        -9.642304011062834
      ],
      [
        "幸运的是",
        -9.642466006584646
      ],
      [
        "的危险",
        -9.642637864863277
      ],
      [
        "拿",
        -9.642746213644388
      ],
      [
        "注意力",
        -9.642760986003704
      ],
      [
        "公约",
        -9.643434702423017
      ],
      [
        "运作",
        -9.643568907577352
      ],
      [
        "争取",
        -9.644003775223636
      ],
      [
        "跨国",
        -9.644118111337624
      ],
      [
        "法庭",
        -9.644165840462687
      ],
      [
        "参与者",
        -9.644245680025508
      ],
      [
        "的法律",
        -9.646255077350578
      ],
      [
        "保障",
        -9.646706297723362
      ],
      [
        "配",
        -9.647128373716836
      ],
      [
        "法案",
        -9.647518704959609
      ],
      [
        "业务",
        -9.648365782829162
      ],
      [
        "霍",
        -9.648538871837923
      ],
      [
        "冰",
        -9.648552604599175
      ],
      [
        "认真",
        -9.648895806560848
      ],
      [
        "还能",
        -9.648932850510878
      ],
      [
        "要素",
        -9.649950290026538
      ],
      [
        "可信",
        -9.650166734957644
      ],
      [
        "个体",
        -9.652524597398497
      ],
      [
        "医",
        -9.652875865009339
      ],
      [
        "人群",
        -9.653421999784578
      ],
      [
        "一直是",
        -9.65394849020173
      ],
      [
        "发生在",
        -9.654146559007451
      ],
      [
        "严格",
        -9.65452392676351
      ],
      [
        "宝",
        -9.654841865874513
      ],
      [
        "共产党",
        -9.654842032835454
      ],
      [
        "迹象",
        -9.654875494016501
      ],
      [
        "警察",
        -9.654911041324294
      ],
      [
        "一开始",
        -9.655507845654224
      ],
      [
        "不受",
        -9.65581563337507
      ],
      [
        "的行动",
        -9.65839219612165
      ],
      [
        "为此",
        -9.658861849855922
      ],
      [
        "设",
        -9.658929127204146
      ],
      [
        "回应",
        -9.659263384943502
      ],
      [
        "不论",
        -9.660244161023568
      ],
      [
        "借贷",
        -9.660837278457159
      ],
      [
        "怪",
        -9.661057839423794
      ],
      [
        "毁",
        -9.66112084352745
      ],
      [
        "静",
        -9.661171026699321
      ],
      [
        "逻辑",
        -9.661171026700206
      ],
      [
        "渠道",
        -9.661171026732822
      ],
      [
        "扭曲",
        -9.661171620328403
      ],
      [
        "减轻",
        -9.66131937699021
      ],
      [
        "森林",
        -9.66134996267802
      ],
      [
        "良",
        -9.661486885879107
      ],
      [
        "多么",
        -9.66248909221962
      ],
      [
        "的任务",
        -9.662606596397973
      ],
      [
        "la",
        -9.662638987492993
      ],
      [
        "领域的",
        -9.662734240342957
      ],
      [
        "om",
        -9.663410373902813
      ],
      [
        "经过",
        -9.663887268214292
      ],
      [
        "th",
        -9.664090351642942
      ],
      [
        "越南",
        -9.664161928345907
      ],
      [
        "的数据",
        -9.664617830292853
      ],
      [
        "de",
        -9.665877442959538
      ],
      [
        "的计划",
        -9.666962024724292
      ],
      [
        "购",
        -9.667170681447043
      ],
      [
        "盖",
        -9.66748284537892
      ],
      [
        "吃",
        -9.667540423701652
      ],
      [
        "2004年",
        -9.667547022081497
      ],
      [
        "遵守",
        -9.66755558402814
      ],
      [
        "途径",
        -9.66756394793533
      ],
      [
        "国有企业",
        -9.667568068172065
      ],
      [
        "这么",
        -9.667635861684927
      ],
      [
        "丧失",
        -9.667679052916654
      ],
      [
        "获胜",
        -9.667708336383008
      ],
      [
        "消失",
        -9.667779703738077
      ],
      [
        "病毒",
        -9.667850068007663
      ],
      [
        "各方",
        -9.669196442517649
      ],
      [
        "根源",
        -9.669719217744866
      ],
      [
        "结构改革",
        -9.670074478497721
      ],
      [
        "准确",
        -9.670969223724377
      ],
      [
        "坦",
        -9.67211314967836
      ],
      [
        "St",
        -9.672240234408932
      ],
      [
        "背",
        -9.672523333408282
      ],
      [
        "占领",
        -9.672735381196597
      ],
      [
        "成功地",
        -9.673013414495928
      ],
      [
        "误",
        -9.673698673108841
      ],
      [
        "累",
        -9.67378551566107
      ],
      [
        "守",
        -9.673814719611126
      ],
      [
        "乏",
        -9.67386296579171
      ],
      [
        "朋友",
        -9.673954608040857
      ],
      [
        "干涉",
        -9.674000919208467
      ],
      [
        "哪些",
        -9.67404296540133
      ],
      [
        "推翻",
        -9.674166461114169
      ],
      [
        "否认",
        -9.674329382744233
      ],
      [
        "平台",
        -9.674521589848183
      ],
      [
        "ation",
        -9.67491794903842
      ],
      [
        "因为他们",
        -9.675042080264632
      ],
      [
        "享受",
        -9.675110034098891
      ],
      [
        "本人",
        -9.67522048309393
      ],
      [
        "财",
        -9.675421280319096
      ],
      [
        "也许是",
        -9.676466077996997
      ],
      [
        "人们对",
        -9.676987807246537
      ],
      [
        "落后",
        -9.677613280841262
      ],
      [
        "以及其他",
        -9.67770436208681
      ],
      [
        "接着",
        -9.679469975564615
      ],
      [
        "可能导致",
        -9.679735759751885
      ],
      [
        "一套",
        -9.679904615491061
      ],
      [
        "判",
        -9.679953020950702
      ],
      [
        "丹",
        -9.680262400738036
      ],
      [
        "冒",
        -9.680365929948161
      ],
      [
        "佩",
        -9.680402322764397
      ],
      [
        "新加坡",
        -9.6804023227645
      ],
      [
        "换句话说",
        -9.680402322768494
      ],
      [
        "阿萨德",
        -9.68040261466888
      ],
      [
        "保留",
        -9.680868962747997
      ],
      [
        "Re",
        -9.683561248114055
      ],
      [
        "投资于",
        -9.683803331394365
      ],
      [
        "内战",
        -9.685248659514187
      ],
      [
        "议员",
        -9.685297940432697
      ],
      [
        "富有",
        -9.685800036451411
      ],
      [
        "巴勒斯坦人",
        -9.685860834218984
      ],
      [
        "岸",
        -9.686377287217447
      ],
      [
        "兵",
        -9.68677602830796
      ],
      [
        "旗",
        -9.686895829257903
      ],
      [
        "循环",
        -9.686901317265901
      ],
      [
        "情形",
        -9.687125673238281
      ],
      [
        "敌",
        -9.690286796437125
      ],
      [
        "的角色",
        -9.690604162213482
      ],
      [
        "付",
        -9.690718861697942
      ],
      [
        "在今年",
        -9.691645055120102
      ],
      [
        "患",
        -9.691839614826788
      ],
      [
        "在很大程度上",
        -9.692647782346535
      ],
      [
        "梦",
        -9.693029871432636
      ],
      [
        "可靠",
        -9.69309787274685
      ],
      [
        "以便",
        -9.693129593976565
      ],
      [
        "2001年",
        -9.693434006808339
      ],
      [
        "她的",
        -9.693862765457796
      ],
      [
        "所在",
        -9.694054995499478
      ],
      [
        "下滑",
        -9.69411459583851
      ],
      [
        "失去了",
        -9.694351476723366
      ],
      [
        "其他人",
        -9.695415185968322
      ],
      [
        "对欧洲",
        -9.696279077849198
      ],
      [
        "太多",
        -9.697372954612888
      ],
      [
        "20年",
        -9.697998841409358
      ],
      [
        "可持续性",
        -9.698578731194194
      ],
      [
        "办",
        -9.698587346322263
      ],
      [
        "坚",
        -9.6989423661542
      ],
      [
        "唯一的",
        -9.699025070256424
      ],
      [
        "经济复苏",
        -9.699220558174995
      ],
      [
        "使其",
        -9.699453624905964
      ],
      [
        "幸",
        -9.69979343485717
      ],
      [
        "已经开始",
        -9.69995580561346
      ],
      [
        "阶层",
        -9.700010724360927
      ],
      [
        "覆盖",
        -9.700023938660728
      ],
      [
        "重塑",
        -9.700053592847517
      ],
      [
        "突破",
        -9.70006097925014
      ],
      [
        "缓解",
        -9.70013701938159
      ],
      [
        "印尼",
        -9.700525212625891
      ],
      [
        "这个国家",
        -9.701182402717919
      ],
      [
        "不利",
        -9.701917144798518
      ],
      [
        "电力",
        -9.701941628250228
      ],
      [
        "会议上",
        -9.702013680222807
      ],
      [
        "主权债务",
        -9.70260088109523
      ],
      [
        "的担忧",
        -9.70374489059433
      ],
      [
        "食",
        -9.706141630270645
      ],
      [
        "迁",
        -9.706401880676465
      ],
      [
        "剂",
        -9.70663323038847
      ],
      [
        "枪",
        -9.706633240894252
      ],
      [
        "帕",
        -9.706633240895034
      ],
      [
        "经合组织",
        -9.70663372345538
      ],
      [
        "渴望",
        -9.706644902116246
      ],
      [
        "改进",
        -9.706878969785045
      ],
      [
        "操作",
        -9.706890343138934
      ],
      [
        "优先",
        -9.707047720253385
      ],
      [
        "古巴",
        -9.707063828444323
      ],
      [
        "坚定",
        -9.707105150954913
      ],
      [
        "和日本",
        -9.707661371406488
      ],
      [
        "第四",
        -9.708273940383137
      ],
      [
        "问题在于",
        -9.709212252133703
      ],
      [
        "都要",
        -9.70936616193633
      ],
      [
        "年度",
        -9.711622829589526
      ],
      [
        "显得",
        -9.712948234806206
      ],
      [
        "苏",
        -9.712993011794435
      ],
      [
        "硬",
        -9.7130372118096
      ],
      [
        "辞",
        -9.71314903980184
      ],
      [
        "谋",
        -9.713180486161333
      ],
      [
        "希",
        -9.71322923799176
      ],
      [
        "抓住",
        -9.71333729541712
      ],
      [
        "逐步",
        -9.713401522100112
      ],
      [
        "恐怖分子",
        -9.713443872800696
      ],
      [
        "逆转",
        -9.713445343589518
      ],
      [
        "资助",
        -9.713597563377476
      ],
      [
        "作物",
        -9.714398463673799
      ],
      [
        "对外",
        -9.714532718853217
      ],
      [
        "税率",
        -9.714749268558872
      ],
      [
        "7月",
        -9.714998384108199
      ],
      [
        "仍然是",
        -9.715445796970677
      ],
      [
        "张",
        -9.716564062216486
      ],
      [
        "穷",
        -9.716839683374879
      ],
      [
        "的速度",
        -9.717938554726965
      ],
      [
        "万人",
        -9.718020160127194
      ],
      [
        "刻",
        -9.718274996172358
      ],
      [
        "显而易见的",
        -9.718672362143312
      ],
      [
        "终于",
        -9.719013609843646
      ],
      [
        "物价",
        -9.719444351170115
      ],
      [
        "耐",
        -9.720011316957674
      ],
      [
        "酒",
        -9.720011316957676
      ],
      [
        "契约",
        -9.720102076559979
      ],
      [
        "违反",
        -9.720225112320936
      ],
      [
        "季度",
        -9.720226449936328
      ],
      [
        "日渐",
        -9.720269298167686
      ],
      [
        "的力量",
        -9.720469981541875
      ],
      [
        "降低了",
        -9.721039049627292
      ],
      [
        "海外",
        -9.721655437155892
      ],
      [
        "中间",
        -9.724138640396438
      ],
      [
        "没有什么",
        -9.724399554128656
      ],
      [
        "的基本",
        -9.7257993968987
      ],
      [
        "拿出",
        -9.726284540297488
      ],
      [
        "露",
        -9.726641697305341
      ],
      [
        "招",
        -9.726754778277408
      ],
      [
        "薪",
        -9.72676378209741
      ],
      [
        "谴责",
        -9.726768073720375
      ],
      [
        "摧毁",
        -9.72676807372548
      ],
      [
        "柏林",
        -9.726779994435384
      ],
      [
        "消息",
        -9.726780613827863
      ],
      [
        "协助",
        -9.726808002533659
      ],
      [
        "感染",
        -9.726857460393138
      ],
      [
        "信仰",
        -9.726880788017016
      ],
      [
        "密切",
        -9.727056811706328
      ],
      [
        "集中在",
        -9.727106389563945
      ],
      [
        "机器",
        -9.72723809075979
      ],
      [
        "那种",
        -9.727846816410255
      ],
      [
        "欧洲议会",
        -9.728093998601736
      ],
      [
        "故",
        -9.728485426430943
      ],
      [
        "涨",
        -9.728542342298189
      ],
      [
        "绝大多数",
        -9.729336982786856
      ],
      [
        "告诉",
        -9.72935054481203
      ],
      [
        "只会",
        -9.729832204465502
      ],
      [
        "动作",
        -9.73053889770093
      ],
      [
        "最初",
        -9.731014915396823
      ],
      [
        "的效果",
        -9.731647990108975
      ],
      [
        "多大",
        -9.731824190513208
      ],
      [
        "翻",
        -9.733341773619188
      ],
      [
        "盘",
        -9.733557169164012
      ],
      [
        "艾",
        -9.733570784540062
      ],
      [
        "矿",
        -9.733570794802866
      ],
      [
        "加拿大",
        -9.733571752041977
      ],
      [
        "严峻",
        -9.733573369810195
      ],
      [
        "悲剧",
        -9.733615748336096
      ],
      [
        "僵局",
        -9.733653237432499
      ],
      [
        "可再生能源",
        -9.733660601281919
      ],
      [
        "愿景",
        -9.733696624418506
      ],
      [
        "住房",
        -9.733791014034042
      ],
      [
        "困扰",
        -9.733976236765127
      ],
      [
        "减税",
        -9.734245744190362
      ],
      [
        "任期",
        -9.734488456671905
      ],
      [
        "银行家",
        -9.734918433015379
      ],
      [
        "积累",
        -9.735880018231292
      ],
      [
        "仍有",
        -9.736313271550456
      ],
      [
        "在这一",
        -9.736756429541444
      ],
      [
        "最好",
        -9.738122083233414
      ],
      [
        "生活水平",
        -9.73902915800535
      ],
      [
        "根本不",
        -9.739131291495239
      ],
      [
        "破",
        -9.739732629469602
      ],
      [
        "犹太人",
        -9.739929785216074
      ],
      [
        "射",
        -9.740036761082969
      ],
      [
        "赶",
        -9.74027600499506
      ],
      [
        "放松",
        -9.740574512777766
      ],
      [
        "召开",
        -9.740574699751683
      ],
      [
        "急需",
        -9.740598050918578
      ],
      [
        "良好",
        -9.740755683103536
      ],
      [
        "情报",
        -9.740880486189614
      ],
      [
        "的权力",
        -9.740891064077228
      ],
      [
        "可行",
        -9.741584375319539
      ],
      [
        "份额",
        -9.743066077396769
      ],
      [
        "其他地方",
        -9.743174242349685
      ],
      [
        "300",
        -9.743662172013229
      ],
      [
        "建立一个",
        -9.74393031584587
      ],
      [
        "所有人都",
        -9.744324166063079
      ],
      [
        "性别",
        -9.746565104394245
      ],
      [
        "鲜",
        -9.746951104119251
      ],
      [
        "创造了",
        -9.747010684942012
      ],
      [
        "的崛起",
        -9.747019598384927
      ],
      [
        "亡",
        -9.747087467219846
      ],
      [
        "航",
        -9.747104549694779
      ],
      [
        "细",
        -9.747118808883261
      ],
      [
        "母",
        -9.747136818240017
      ],
      [
        "更不用说",
        -9.747316750592727
      ],
      [
        "纷纷",
        -9.747321047287556
      ],
      [
        "浪费",
        -9.747389131295968
      ],
      [
        "立刻",
        -9.7474329201451
      ],
      [
        "演讲",
        -9.747628681199743
      ],
      [
        "动机",
        -9.747722381672943
      ],
      [
        "认定",
        -9.747740221312618
      ],
      [
        "区别",
        -9.748017410289838
      ],
      [
        "者们",
        -9.74812007809486
      ],
      [
        "一个国家",
        -9.749541179714704
      ],
      [
        "近期",
        -9.749887371140769
      ],
      [
        "也可能",
        -9.75002917410577
      ],
      [
        "萧条",
        -9.752248387160456
      ],
      [
        "诚",
        -9.753764905232767
      ],
      [
        "在国际",
        -9.754117256495032
      ],
      [
        "戴",
        -9.754261018602055
      ],
      [
        "玛",
        -9.75426110603994
      ],
      [
        "外汇储备",
        -9.754342616357098
      ],
      [
        "能让",
        -9.754374147356538
      ],
      [
        "文章",
        -9.754406124007396
      ],
      [
        "加沙",
        -9.754980683135075
      ],
      [
        "南部",
        -9.755149412090754
      ],
      [
        "负面",
        -9.755555791605541
      ],
      [
        "主流",
        -9.755941866202779
      ],
      [
        "记者",
        -9.757213407242613
      ],
      [
        "更快",
        -9.757382006145342
      ],
      [
        "总量",
        -9.757549187740922
      ],
      [
        "主要是",
        -9.758799679260013
      ],
      [
        "实体",
        -9.759129029203852
      ],
      [
        "但它们",
        -9.759697820833484
      ],
      [
        "例外",
        -9.760070815797384
      ],
      [
        "途",
        -9.760307429291572
      ],
      [
        "卫",
        -9.760560771745151
      ],
      [
        "抱",
        -9.761221770815512
      ],
      [
        "3⁄4",
        -9.761254113033004
      ],
      [
        "偿付",
        -9.761313274980028
      ],
      [
        "融合",
        -9.761386857456394
      ],
      [
        "for",
        -9.761857869092832
      ],
      [
        "声明",
        -9.762133109991414
      ],
      [
        "医学",
        -9.762432885367907
      ],
      [
        "留下",
        -9.762663163095034
      ],
      [
        "发电",
        -9.763120949447424
      ],
      [
        "男性",
        -9.76387565834056
      ],
      [
        "兑现",
        -9.764008184255765
      ],
      [
        "根本性",
        -9.764588414258347
      ],
      [
        "加以",
        -9.765456507491365
      ],
      [
        "不必",
        -9.766737486526303
      ],
      [
        "的人口",
        -9.766781783153682
      ],
      [
        "面前",
        -9.767639864164249
      ],
      [
        "室",
        -9.768228807847462
      ],
      [
        "船",
        -9.768296366554074
      ],
      [
        "震惊",
        -9.768346795467277
      ],
      [
        "投机",
        -9.768621725458148
      ],
      [
        "毒品",
        -9.768717944199945
      ],
      [
        "事业",
        -9.769980348536862
      ],
      [
        "不够",
        -9.770972275308324
      ],
      [
        "当中",
        -9.77229698966114
      ],
      [
        "自由贸易",
        -9.772521494200241
      ],
      [
        "即使在",
        -9.773621676349581
      ],
      [
        "ment",
        -9.773909063596104
      ],
      [
        "实现了",
        -9.774696230958364
      ],
      [
        "不可避免",
        -9.774716170504831
      ],
      [
        "没人",
        -9.775021061987534
      ],
      [
        "补",
        -9.775106020168122
      ],
      [
        "奖",
        -9.775387941590623
      ],
      [
        "雨",
        -9.775388565135632
      ],
      [
        "穿",
        -9.775388565135632
      ],
      [
        "欠",
        -9.775388565135634
      ],
      [
        "埃尔多安",
        -9.775388565426045
      ],
      [
        "疟疾",
        -9.77538856640499
      ],
      [
        "默克尔",
        -9.775389053019175
      ],
      [
        "形象",
        -9.775494494846965
      ],
      [
        "顾问",
        -9.775521320335976
      ],
      [
        "距离",
        -9.775783773673233
      ],
      [
        "安倍",
        -9.77605961515763
      ],
      [
        "施加",
        -9.776111242354517
      ],
      [
        "两位",
        -9.777617163315968
      ],
      [
        "开发银行",
        -9.778149857498137
      ],
      [
        "信号",
        -9.778506495089907
      ],
      [
        "企业家",
        -9.782000384274273
      ],
      [
        "暗",
        -9.782361030565411
      ],
      [
        "拖",
        -9.7823994412155
      ],
      [
        "扎",
        -9.782521800587046
      ],
      [
        "尼日利亚",
        -9.78253142268311
      ],
      [
        "抗生素",
        -9.78253167274806
      ],
      [
        "电脑",
        -9.782694149765083
      ],
      [
        "受到了",
        -9.782801219023764
      ],
      [
        "利息",
        -9.783231486917975
      ],
      [
        "临",
        -9.783854716825783
      ],
      [
        "国防",
        -9.783945567253006
      ],
      [
        "ad",
        -9.784126506310724
      ],
      [
        "30年",
        -9.785548448604889
      ],
      [
        "本地",
        -9.786385639999132
      ],
      [
        "这样一个",
        -9.786443360248445
      ],
      [
        "经历了",
        -9.786567532305114
      ],
      [
        "的巨大",
        -9.787528721192732
      ],
      [
        "负责任",
        -9.7877251526644
      ],
      [
        "一些国家",
        -9.788217528364967
      ],
      [
        "全新",
        -9.788364819929733
      ],
      [
        "控",
        -9.788916628609991
      ],
      [
        "丧",
        -9.789140327328752
      ],
      [
        "朗",
        -9.78935984195254
      ],
      [
        "店",
        -9.789725666882804
      ],
      [
        "戈",
        -9.789725666882806
      ],
      [
        "细胞",
        -9.789725666893606
      ],
      [
        "科索沃",
        -9.789725682745992
      ],
      [
        "宽松",
        -9.789763078960924
      ],
      [
        "补偿",
        -9.789781523888715
      ],
      [
        "永久",
        -9.789817572367326
      ],
      [
        "评级",
        -9.78983202789082
      ],
      [
        "选票",
        -9.79010182538573
      ],
      [
        "道理",
        -9.790670407301057
      ],
      [
        "财务",
        -9.790863715761017
      ],
      [
        "变得更",
        -9.790889590609094
      ],
      [
        "引导",
        -9.791520772311276
      ],
      [
        "5月",
        -9.792051997743812
      ],
      [
        "也能",
        -9.79437742607318
      ],
      [
        "两种",
        -9.795404898524183
      ],
      [
        "边缘",
        -9.795872637189007
      ],
      [
        "三分之一",
        -9.796972788039199
      ],
      [
        "害怕",
        -9.796987221451754
      ],
      [
        "消灭",
        -9.797059313729957
      ],
      [
        "资本市场",
        -9.797422380447209
      ],
      [
        "人道主义",
        -9.79785763919073
      ],
      [
        "20世纪",
        -9.797940354037479
      ],
      [
        "In",
        -9.798108506593781
      ],
      [
        "都能",
        -9.798542701005761
      ],
      [
        "第二个",
        -9.79941602541479
      ],
      [
        "1月",
        -9.80072379557982
      ],
      [
        "任命",
        -9.800939436132428
      ],
      [
        "文明",
        -9.801385812524659
      ],
      [
        "目的是",
        -9.8021144950651
      ],
      [
        "不应",
        -9.802259006468192
      ],
      [
        "诉",
        -9.803625733368442
      ],
      [
        "刑",
        -9.803702485471039
      ],
      [
        "烟",
        -9.804173964516094
      ],
      [
        "燃料",
        -9.804208475107254
      ],
      [
        "扬",
        -9.80422380362852
      ],
      [
        "肉",
        -9.804271313767394
      ],
      [
        "呈",
        -9.804271313767394
      ],
      [
        "块",
        -9.804271313767394
      ],
      [
        "卡梅伦",
        -9.804271351710824
      ],
      [
        "考验",
        -9.804285892222676
      ],
      [
        "过渡",
        -9.804786325009168
      ],
      [
        "小组",
        -9.805160061137848
      ],
      [
        "青年",
        -9.805189777464928
      ],
      [
        "更具",
        -9.80529281295956
      ],
      [
        "下来",
        -9.805520553579656
      ],
      [
        "该计划",
        -9.80739667963761
      ],
      [
        "我们应该",
        -9.807744827608015
      ],
      [
        "原本",
        -9.80828988863779
      ],
      [
        "义",
        -9.808578027290288
      ],
      [
        "金融部门",
        -9.810470639258057
      ],
      [
        "偿",
        -9.810560661855721
      ],
      [
        "工会",
        -9.810839552114746
      ],
      [
        "运行",
        -9.810875254737104
      ],
      [
        "性质",
        -9.811022784024086
      ],
      [
        "币",
        -9.811216365598625
      ],
      [
        "胡",
        -9.811624254943858
      ],
      [
        "太阳能",
        -9.811624386485299
      ],
      [
        "蔓延",
        -9.811625027010589
      ],
      [
        "敏感",
        -9.811721573204736
      ],
      [
        "徒",
        -9.812243871955456
      ],
      [
        "富人",
        -9.812801351048687
      ],
      [
        "整",
        -9.813436800264622
      ],
      [
        "纳入",
        -9.813493487343074
      ],
      [
        "延长",
        -9.81458190636588
      ],
      [
        "汇",
        -9.816939212016305
      ],
      [
        "程",
        -9.818057582624677
      ],
      [
        "影",
        -9.818354589301933
      ],
      [
        "持久",
        -9.818364669065403
      ],
      [
        "剧",
        -9.818391459581754
      ],
      [
        "草",
        -9.818886240904346
      ],
      [
        "sp",
        -9.819017213086202
      ],
      [
        "’",
        -9.819031662351271
      ],
      [
        "纳粹",
        -9.819031662402438
      ],
      [
        "称之为",
        -9.819042539215246
      ],
      [
        "严厉",
        -9.819047199362092
      ],
      [
        "一部分",
        -9.81929586114899
      ],
      [
        "不足以",
        -9.820430061284732
      ],
      [
        "宏观",
        -9.820750266965758
      ],
      [
        "那个",
        -9.821025076328612
      ],
      [
        "发起",
        -9.821174332665144
      ],
      [
        "us",
        -9.823000492439508
      ],
      [
        "历",
        -9.823769957560756
      ],
      [
        "不平衡",
        -9.82455542323148
      ],
      [
        "引发了",
        -9.824587404823
      ],
      [
        "积",
        -9.825294681808684
      ],
      [
        "倾",
        -9.825408605038344
      ],
      [
        "the",
        -9.825471238805388
      ],
      [
        "藏",
        -9.826160952823951
      ],
      [
        "•",
        -9.826494348918436
      ],
      [
        "壁垒",
        -9.82649434892057
      ],
      [
        "饱受",
        -9.826600917141025
      ],
      [
        "完美",
        -9.826729512796028
      ],
      [
        "良好的",
        -9.82685465162227
      ],
      [
        "000亿美元",
        -9.827195166139795
      ],
      [
        "解决问题",
        -9.82736206320994
      ],
      [
        "沙特",
        -9.827420958969771
      ],
      [
        "这些人",
        -9.828241064117917
      ],
      [
        "有力",
        -9.829249219429908
      ],
      [
        "经济政策",
        -9.830520484607081
      ],
      [
        "可能性",
        -9.831125287237747
      ],
      [
        "幅",
        -9.83160794800926
      ],
      [
        "闻",
        -9.831942746876607
      ],
      [
        "卢",
        -9.834013137426286
      ],
      [
        "二十世纪",
        -9.834094182472938
      ],
      [
        "元",
        -9.834099090554398
      ],
      [
        "便是",
        -9.834166429263636
      ],
      [
        "莫迪",
        -9.834186849663922
      ],
      [
        "彼此",
        -9.834189474952112
      ],
      [
        "推迟",
        -9.834333895647262
      ],
      [
        "注入",
        -9.834514056925684
      ],
      [
        "正义",
        -9.83456623629811
      ],
      [
        "复杂的",
        -9.834850015001448
      ],
      [
        "临时",
        -9.835499337566265
      ],
      [
        "整合",
        -9.836201450520758
      ],
      [
        "就连",
        -9.838032552862485
      ],
      [
        "低碳",
        -9.838683264145818
      ],
      [
        "某个",
        -9.839613178032923
      ],
      [
        "加大",
        -9.841412541589547
      ],
      [
        "贯",
        -9.841588903486675
      ],
      [
        "清晰",
        -9.841588903526727
      ],
      [
        "专注于",
        -9.841589013130985
      ],
      [
        "否决",
        -9.84163038099532
      ],
      [
        "世界各地",
        -9.841838852706442
      ],
      [
        "纠正",
        -9.842159344184196
      ],
      [
        "用户",
        -9.84259327937723
      ],
      [
        "一些人",
        -9.843681908705747
      ],
      [
        "战后",
        -9.844125418071613
      ],
      [
        "财政赤字",
        -9.844930142909813
      ],
      [
        "平民",
        -9.845065443458974
      ],
      [
        "流向",
        -9.845878457076916
      ],
      [
        "生产力",
        -9.846097377595706
      ],
      [
        "随之",
        -9.846112017869137
      ],
      [
        "超过了",
        -9.846280785719847
      ],
      [
        "病人",
        -9.846492627658193
      ],
      [
        "im",
        -9.847044508167336
      ],
      [
        "将成为",
        -9.847803581735302
      ],
      [
        "在一起",
        -9.84810585897996
      ],
      [
        "因为它们",
        -9.848433639304695
      ],
      [
        "袭",
        -9.849075930689047
      ],
      [
        "幅度",
        -9.849169682783987
      ],
      [
        "兹",
        -9.849222491272933
      ],
      [
        "画",
        -9.849222491272936
      ],
      [
        "奥朗德",
        -9.849222608294864
      ],
      [
        "赋予",
        -9.84922803659779
      ],
      [
        "材料",
        -9.849252763819026
      ],
      [
        "游戏",
        -9.849264024810818
      ],
      [
        "幸福",
        -9.849336899387236
      ],
      [
        "辛格",
        -9.849429624049723
      ],
      [
        "予以",
        -9.849584467003126
      ],
      [
        "深入",
        -9.850612060406728
      ],
      [
        "经济衰退",
        -9.852656686202547
      ],
      [
        "大众",
        -9.852843614573558
      ],
      [
        "欧洲领导人",
        -9.852955309355512
      ],
      [
        "进化",
        -9.853118800637535
      ],
      [
        "毫不",
        -9.853742906369213
      ],
      [
        "认",
        -9.855183246973823
      ],
      [
        "户",
        -9.855724491171834
      ],
      [
        "反而",
        -9.856264670768702
      ],
      [
        "味",
        -9.85691445706552
      ],
      [
        "凯",
        -9.856914727469835
      ],
      [
        "驻",
        -9.856914798965246
      ],
      [
        "完整",
        -9.856954599596897
      ],
      [
        "乔治",
        -9.856968628523095
      ],
      [
        "毁灭",
        -9.85697583583597
      ],
      [
        "步骤",
        -9.857024846558634
      ],
      [
        "设立",
        -9.857054377567332
      ],
      [
        "被认为是",
        -9.857825102037966
      ],
      [
        "学院",
        -9.857866562771532
      ],
      [
        "深度",
        -9.858118921495452
      ],
      [
        "敌人",
        -9.86016288830276
      ],
      [
        "泰国",
        -9.860388767240105
      ],
      [
        "富裕国家",
        -9.860799754984022
      ],
      [
        "突",
        -9.861226671758006
      ],
      [
        "最好的",
        -9.861946004940158
      ],
      [
        "速",
        -9.862085789439355
      ],
      [
        "比率",
        -9.862855069085455
      ],
      [
        "拥",
        -9.86340734756305
      ],
      [
        "抵",
        -9.86408478828805
      ],
      [
        "龙",
        -9.864666736949738
      ],
      [
        "返",
        -9.86466673694974
      ],
      [
        "响应",
        -9.865343153712587
      ],
      [
        "和解",
        -9.865617180486925
      ],
      [
        "段",
        -9.8675885784339
      ],
      [
        "都必须",
        -9.867603321489105
      ],
      [
        "终结",
        -9.867784911589577
      ],
      [
        "顾",
        -9.868294203634093
      ],
      [
        "还必须",
        -9.86911399639109
      ],
      [
        "动员",
        -9.869342776426011
      ],
      [
        "前任",
        -9.869854263076235
      ],
      [
        "包容",
        -9.870158727846484
      ],
      [
        "房价",
        -9.870528057968645
      ],
      [
        "ir",
        -9.871545840337962
      ],
      [
        "下降到",
        -9.871668739818913
      ],
      [
        "厚",
        -9.872479236949737
      ],
      [
        "看上去",
        -9.872488195580033
      ],
      [
        "反过来",
        -9.872490662595554
      ],
      [
        "象征",
        -9.872549289360737
      ],
      [
        "判断",
        -9.872662119261626
      ],
      [
        "融入",
        -9.872671734137114
      ],
      [
        "丰富",
        -9.872783973882282
      ],
      [
        "致命",
        -9.8728342458924
      ],
      [
        "没有任何",
        -9.87299573165501
      ],
      [
        "欧盟国家",
        -9.873873306070802
      ],
      [
        "电子",
        -9.87398037921681
      ],
      [
        "德国人",
        -9.876612737175584
      ],
      [
        "趋",
        -9.876932221173202
      ],
      [
        "形成了",
        -9.877063735379075
      ],
      [
        "一段时间",
        -9.877409867403088
      ],
      [
        "以外",
        -9.877664874403257
      ],
      [
        "脑",
        -9.877830990172319
      ],
      [
        "排除",
        -9.878329724127424
      ],
      [
        "缩",
        -9.878991852884548
      ],
      [
        "更好地",
        -9.879345372821426
      ],
      [
        "修",
        -9.87950033733142
      ],
      [
        "考",
        -9.880192203578082
      ],
      [
        "从事",
        -9.880193283004385
      ],
      [
        "请",
        -9.880323572818536
      ],
      [
        "歧视",
        -9.880353252816372
      ],
      [
        "菲律宾",
        -9.880353254532615
      ],
      [
        "必",
        -9.880429056766681
      ],
      [
        "急剧",
        -9.88046328042352
      ],
      [
        "运转",
        -9.88080317951404
      ],
      [
        "10月",
        -9.881525487456212
      ],
      [
        "这里",
        -9.881955169898646
      ],
      [
        "以至于",
        -9.882018756312478
      ],
      [
        "制约",
        -9.882167749924154
      ],
      [
        "传染病",
        -9.882360993899725
      ],
      [
        "转移到",
        -9.882521072418967
      ],
      [
        "试",
        -9.888034696316538
      ],
      [
        "委",
        -9.888113297145487
      ],
      [
        "扣",
        -9.888289760634274
      ],
      [
        "突尼斯",
        -9.888289998568007
      ],
      [
        "奇怪",
        -9.88837900929862
      ],
      [
        "复兴",
        -9.888449346171228
      ],
      [
        "战斗",
        -9.888506694816533
      ],
      [
        "很容易",
        -9.889116292996256
      ],
      [
        "二十年",
        -9.889318517377248
      ],
      [
        "结构性改革",
        -9.88938564091314
      ],
      [
        "碳排放",
        -9.890042666253455
      ],
      [
        "学者",
        -9.890193979160385
      ],
      [
        "位置",
        -9.890272668918133
      ],
      [
        "不愿意",
[...]
