{
  "version": "1.0",
  "truncation": null,
  "padding": null,
  "added_tokens": [
    {
      "id": 0,
      "content": "[PAD]",
      "single_word": false,
      "lstrip": false,
      "rstrip": false,
      "normalized": false,
      "special": true
    },
    {
      "id": 1,
      "content": "[UNK]",
      "single_word": false,
      "lstrip": false,
      "rstrip": false,
      "normalized": false,
      "special": true
    },
    {
      "id": 2,
      "content": "[CLS]",
      "single_word": false,
      "lstrip": false,
      "rstrip": false,
      "normalized": false,
      "special": true
    },
    {
      "id": 3,
      "content": "[SEP]",
      "single_word": false,
      "lstrip": false,
      "rstrip": false,
      "normalized": false,
      "special": true
    },
    {
      "id": 4,
      "content": "[MASK]",
      "single_word": false,
      "lstrip": false,
      "rstrip": false,
      "normalized": false,
      "special": true
    }
  ],
  "normalizer": {
    "type": "Sequence",
    "normalizers": [
      {
        "type": "NFKC"
      },
      {
        "type": "Lowercase"
      }
    ]
  },
  "pre_tokenizer": {
    "type": "Whitespace"
  },
  "post_processor": {
    "type": "TemplateProcessing",
    "single": [
      {
        "SpecialToken": {
          "id": "[CLS]",
          "type_id": 0
        }
      },
      {
        "Sequence": {
          "id": "A",
          "type_id": 0
        }
      },
      {
        "SpecialToken": {
          "id": "[SEP]",
          "type_id": 0
        }
      }
    ],
    "pair": [
      {
        "SpecialToken": {
          "id": "[CLS]",
          "type_id": 0
        }
      },
      {
        "Sequence": {
          "id": "A",
          "type_id": 0
        }
      },
      {
        "SpecialToken": {
          "id": "[SEP]",
          "type_id": 0
        }
      },
      {
        "Sequence": {
          "id": "B",
          "type_id": 0
        }
      },
      {
        "SpecialToken": {
          "id": "[SEP]",
          "type_id": 0
        }
      }
    ],
    "special_tokens": {
      "[CLS]": {
        "id": "[CLS]",
        "ids": [
          2
        ],
        "tokens": [
          "[CLS]"
        ]
      },
      "[SEP]": {
        "id": "[SEP]",
        "ids": [
          3
        ],
        "tokens": [
          "[SEP]"
        ]
      }
    }
  },
  "decoder": null,
  "model": {
    "type": "Unigram",
    "unk_id": 1,
    "vocab": [
      [
        "[PAD]",
        0.0
      ],
      [
        "[UNK]",
        0.0
      ],
      [
        "[CLS]",
        0.0
      ],
      [
        "[SEP]",
        0.0
      ],
      [
        "[MASK]",
        0.0
      ],
      [
        "s",
        -2.6530915067497123
      ],
      [
        "the",
        -3.1254599697013905
      ],
      [
        ",",
        -3.201524033179659
      ],
      [
        ".",
        -3.5622972169567078
      ],
      [
        "a",
        -3.6773063609402517
      ],
      [
        "to",
        -3.841213741641665
      ],
      [
        "of",
        -3.9245114923635818
      ],
      [
        "and",
        -3.974058711923364
      ],
      [
        "in",
        -4.0987330147547425
      ],
      [
        "y",
        -4.099540017428723
      ],
      [
        "e",
        -4.148941902779313
      ],
      [
        "t",
        -4.175505912403423
      ],
      [
        "ing",
        -4.24617652858416
      ],
      [
        "d",
        -4.302576932082607
      ],
      [
        "i",
        -4.460977758248077
      ],
      [
        "ed",
        -4.515594197586086
      ],
      [
        "ly",
        -4.574555652684188
      ],
      [
        "is",
        -4.647251968805898
      ],
      [
        "that",
        -4.670945206786831
      ],
      [
        "-",
        -4.720197794135583
      ],
      [
        "’",
        -4.8020271682590785
      ],
      [
        "on",
        -4.835318078822121
      ],
      [
        "o",
        -4.987237722405794
      ],
      [
        "n",
        -4.993011332364169
      ],
      [
        "for",
        -5.038440370800592
      ],
      [
        "be",
        -5.078478292096351
      ],
      [
        "–",
        -5.291722031693354
      ],
      [
        "are",
        -5.420205784403391
      ],
      [
        "r",
        -5.459929085461159
      ],
      [
        "with",
        -5.4715417569260225
      ],
      [
        "not",
        -5.4797267037638555
      ],
      [
        "by",
        -5.584966378559029
      ],
      [
        "but",
        -5.592191093384111
      ],
      [
        "has",
        -5.6824804115663134
      ],
      [
        "an",
        -5.694535715631083
      ],
      [
        "have",
        -5.702414070684171
      ],
      [
        "m",
        -5.754950500301028
      ],
      [
        "more",
        -5.805430843837742
      ],
      [
        "will",
        -5.806096428051855
      ],
      [
        "this",
        -5.8555862440152815
      ],
      [
        "f",
        -5.897068231859068
      ],
      [
        "from",
        -5.901724362174539
      ],
      [
        "ies",
        -5.904445442442899
      ],
      [
        "its",
        -5.910986188462218
      ],
      [
        "their",
        -5.95311486083604
      ],
      [
        "w",
        -5.953892285489998
      ],
      [
        "us",
        -6.023305494396908
      ],
      [
        "“",
        -6.029915868026416
      ],
      [
        "c",
        -6.0326551384764695
      ],
      [
        "or",
        -6.041120896627701
      ],
      [
        "l",
        -6.060111820568604
      ],
      [
        "would",
        -6.159225466459839
      ],
      [
        "was",
        -6.175481497336808
      ],
      [
        "can",
        -6.213296855543337
      ],
      [
        "china",
        -6.21590282184636
      ],
      [
        "b",
        -6.226822000904466
      ],
      [
        "uch",
        -6.229679221776637
      ],
      [
        "world",
        -6.24399157363756
      ],
      [
        "countries",
        -6.264968610865262
      ],
      [
        "al",
        -6.293758638203894
      ],
      [
        "one",
        -6.298379223705721
      ],
      [
        "which",
        -6.301130214090058
      ],
      [
        "than",
        -6.307689302594181
      ],
      [
        "grow",
        -6.341375573845026
      ],
      [
        "government",
        -6.343907390341242
      ],
      [
        "other",
        -6.3622280917926854
      ],
      [
        "u",
        -6.367393530583943
      ],
      [
        "year",
        -6.37680001717346
      ],
      [
        "th",
        -6.378224071815987
      ],
      [
        "economic",
        -6.380785644042772
      ],
      [
        "all",
        -6.383246368879819
      ],
      [
        "”",
        -6.407269802288779
      ],
      [
        "new",
        -6.41791019172571
      ],
      [
        "(",
        -6.455186681216388
      ],
      [
        "h",
        -6.466425250401917
      ],
      [
        "global",
        -6.539879339907499
      ],
      [
        "most",
        -6.545622349458959
      ],
      [
        "over",
        -6.554972366782131
      ],
      [
        "%",
        -6.568776403045359
      ],
      [
        "bank",
        -6.589460107319999
      ],
      [
        "econom",
        -6.623465155570434
      ],
      [
        "europe",
        -6.655122455049378
      ],
      [
        "market",
        -6.668962572760272
      ],
      [
        "like",
        -6.675263142823871
      ],
      [
        "there",
        -6.68195369884865
      ],
      [
        "bee",
        -6.686170573463887
      ],
      [
        "european",
        -6.693692281774995
      ],
      [
        "even",
        -6.703296254743373
      ],
      [
        ")",
        -6.732912873248493
      ],
      [
        "should",
        -6.744397063465939
      ],
      [
        "need",
        -6.761537041706223
      ],
      [
        ";",
        -6.771857651421183
      ],
      [
        "when",
        -6.784917578303007
      ],
      [
        "also",
        -6.7942225778827705
      ],
      [
        "political",
        -6.803648068465495
      ],
      [
        ":",
        -6.807878328981145
      ],
      [
        "now",
        -6.809963567170405
      ],
      [
        "some",
        -6.8130200444896545
      ],
      [
        "financial",
        -6.815773626947692
      ],
      [
        "about",
        -6.827556693531815
      ],
      [
        "could",
        -6.846016491883745
      ],
      [
        "ity",
        -6.848440285278894
      ],
      [
        "who",
        -6.852082810501738
      ],
      [
        "people",
        -6.870830594984964
      ],
      [
        "many",
        -6.875574330126563
      ],
      [
        "g",
        -6.883811278632347
      ],
      [
        "he",
        -6.888556490562129
      ],
      [
        "cause",
        -6.888957241684038
      ],
      [
        "out",
        -6.899971905853281
      ],
      [
        "these",
        -6.935429734684753
      ],
      [
        "what",
        -6.938518804949384
      ],
      [
        "how",
        -6.9404942596967185
      ],
      [
        "time",
        -6.9420626551500035
      ],
      [
        "country",
        -6.946427107705437
      ],
      [
        "rate",
        -6.949395264218609
      ],
      [
        "policy",
        -6.974262760108038
      ],
      [
        "his",
        -6.978681560450871
      ],
      [
        "p",
        -6.97900229859329
      ],
      [
        "were",
        -6.9831136905706686
      ],
      [
        "cris",
        -6.983948113479967
      ],
      [
        "un",
        -7.008653648354084
      ],
      [
        "day",
        -7.029275131460514
      ],
      [
        "whil",
        -7.0488118405947855
      ],
      [
        "must",
        -7.054847763904968
      ],
      [
        "up",
        -7.05963531058773
      ],
      [
        "may",
        -7.061631221650492
      ],
      [
        "international",
        -7.068009838203444
      ],
      [
        "part",
        -7.07784304219315
      ],
      [
        "long",
        -7.120081003070926
      ],
      [
        "debt",
        -7.138353414723512
      ],
      [
        "able",
        -7.140362083233416
      ],
      [
        "power",
        -7.144741317452154
      ],
      [
        "interest",
        -7.17301900640866
      ],
      [
        "hose",
        -7.184582378716898
      ],
      [
        "state",
        -7.184886164089932
      ],
      [
        "had",
        -7.184955669841695
      ],
      [
        "term",
        -7.196378460152384
      ],
      [
        "change",
        -7.196626973900947
      ],
      [
        "less",
        -7.198652716113392
      ],
      [
        "war",
        -7.1992286497726905
      ],
      [
        "investment",
        -7.201162413963902
      ],
      [
        "?",
        -7.204292283558319
      ],
      [
        "large",
        -7.2127125006939625
      ],
      [
        "public",
        -7.215300907204214
      ],
      [
        "system",
        -7.22098274516871
      ],
      [
        "states",
        -7.228172050601906
      ],
      [
        "after",
        -7.228363933784063
      ],
      [
        "where",
        -7.236508506947911
      ],
      [
        "right",
        -7.23802264453414
      ],
      [
        "euro",
        -7.244481437203935
      ],
      [
        "any",
        -7.248086827169927
      ],
      [
        "recent",
        -7.255750313040603
      ],
      [
        "first",
        -7.262473364636542
      ],
      [
        "our",
        -7.277644289299838
      ],
      [
        "two",
        -7.279093972099464
      ],
      [
        "price",
        -7.281678857185093
      ],
      [
        "well",
        -7.284535751810351
      ],
      [
        "risk",
        -7.285367835084769
      ],
      [
        "high",
        -7.2868595875563775
      ],
      [
        "problem",
        -7.29291492080005
      ],
      [
        "leaders",
        -7.296863870753709
      ],
      [
        "again",
        -7.316496932819835
      ],
      [
        "them",
        -7.335508207503549
      ],
      [
        "way",
        -7.348352936992181
      ],
      [
        "america",
        -7.370919916102574
      ],
      [
        "develop",
        -7.373320042195915
      ],
      [
        ".”",
        -7.3876814855030855
      ],
      [
        "real",
        -7.395641415423468
      ],
      [
        "between",
        -7.396517548924327
      ],
      [
        "remain",
        -7.413239725621886
      ],
      [
        "ment",
        -7.413246965042238
      ],
      [
        "own",
        -7.415608272611478
      ],
      [
        "last",
        -7.431722842565041
      ],
      [
        "ever",
        -7.4319464734149
      ],
      [
        "reform",
        -7.4321899848038715
      ],
      [
        "200",
        -7.434484588246535
      ],
      [
        "development",
        -7.437117299666675
      ],
      [
        "president",
        -7.437446169347831
      ],
      [
        "support",
        -7.439765022787474
      ],
      [
        "unite",
        -7.443177058020463
      ],
      [
        "just",
        -7.443406171435165
      ],
      [
        "national",
        -7.4586881126089555
      ],
      [
        "cost",
        -7.471694106206915
      ],
      [
        "both",
        -7.472325269749213
      ],
      [
        "indee",
        -7.484595979905882
      ],
      [
        "american",
        -7.486242016903434
      ],
      [
        "low",
        -7.500603462477837
      ],
      [
        "far",
        -7.501633776661861
      ],
      [
        "current",
        -7.507232987073325
      ],
      [
        "increase",
        -7.511557367726815
      ],
      [
        "central",
        -7.521270985859551
      ],
      [
        "become",
        -7.5215210020171
      ],
      [
        "end",
        -7.5238697359680184
      ],
      [
        "result",
        -7.524098800147146
      ],
      [
        "trade",
        -7.524989161214977
      ],
      [
        "health",
        -7.551756494503792
      ],
      [
        "make",
        -7.555584847837644
      ],
      [
        "through",
        -7.556156049117892
      ],
      [
        "2",
        -7.562817850675814
      ],
      [
        "union",
        -7.565783964030236
      ],
      [
        "good",
        -7.567267879150086
      ],
      [
        "under",
        -7.584584998147874
      ],
      [
        "mean",
        -7.585982308034868
      ],
      [
        "capital",
        -7.586587905288763
      ],
      [
        "work",
        -7.594559030400686
      ],
      [
        "$",
        -7.59456207422929
      ],
      [
        "example",
        -7.596331494189982
      ],
      [
        "chines",
        -7.599465391101643
      ],
      [
        "fund",
        -7.601208206427294
      ],
      [
        "demand",
        -7.605244992513836
      ],
      [
        "re",
        -7.609545852140406
      ],
      [
        "ance",
        -7.613711195724831
      ],
      [
        "per",
        -7.617026684486421
      ],
      [
        "zone",
        -7.619667875792264
      ],
      [
        "india",
        -7.623708697245244
      ],
      [
        "1",
        -7.626633369157
      ],
      [
        "fiscal",
        -7.63976600836638
      ],
      [
        "seem",
        -7.642434815909906
      ],
      [
        "force",
        -7.6462411884823
      ],
      [
        "help",
        -7.64858913441506
      ],
      [
        "important",
        -7.650893965979308
      ],
      [
        "social",
        -7.655052197747866
      ],
      [
        "since",
        -7.655376622062937
      ],
      [
        "gdp",
        -7.659030626479396
      ],
      [
        "germany",
        -7.660123330557755
      ],
      [
        "3",
        -7.663705762371196
      ],
      [
        "energ",
        -7.667022118431666
      ],
      [
        "call",
        -7.669079962456051
      ],
      [
        "k",
        -7.6754833721020335
      ],
      [
        "self",
        -7.679094477759279
      ],
      [
        "security",
        -7.679979722831194
      ],
      [
        "into",
        -7.684241187349568
      ],
      [
        "take",
        -7.687039374390384
      ],
      [
        "still",
        -7.687386119004456
      ],
      [
        "every",
        -7.688149715171591
      ],
      [
        "ness",
        -7.693673851373725
      ],
      [
        "income",
        -7.7049616279132405
      ],
      [
        "does",
        -7.713435403630392
      ],
      [
        "20",
        -7.722206052313354
      ],
      [
        "continue",
        -7.729533472410961
      ],
      [
        "level",
        -7.736751448141969
      ],
      [
        "though",
        -7.736761753220103
      ],
      [
        "foreign",
        -7.740529372530434
      ],
      [
        "future",
        -7.744177581113836
      ],
      [
        "billion",
        -7.750321746131115
      ],
      [
        "sector",
        -7.751298495759495
      ],
      [
        "8",
        -7.757341517773402
      ],
      [
        "ready",
        -7.7626728085203025
      ],
      [
        "monetar",
        -7.781623238259231
      ],
      [
        "decade",
        -7.781785360873427
      ],
      [
        "clear",
        -7.78822663622333
      ],
      [
        "require",
        -7.789751174635339
      ],
      [
        "5",
        -7.791986820624681
      ],
      [
        "human",
        -7.795764333205209
      ],
      [
        "includ",
        -7.796776634292114
      ],
      [
        "effort",
        -7.806956379823049
      ],
      [
        "challenge",
        -7.812934273273467
      ],
      [
        "without",
        -7.813740471070099
      ],
      [
        "back",
        -7.8149792004108765
      ],
      [
        "same",
        -7.820822458699758
      ],
      [
        "issue",
        -7.820852354447769
      ],
      [
        "tax",
        -7.825049039212214
      ],
      [
        "benefit",
        -7.826058187930833
      ],
      [
        "case",
        -7.8269535243527955
      ],
      [
        "militar",
        -7.830370792987801
      ],
      [
        "rule",
        -7.841054888671931
      ],
      [
        "russia",
        -7.8461806622515
      ],
      [
        "major",
        -7.8469452076946045
      ],
      [
        "climate",
        -7.8500907636905755
      ],
      [
        "might",
        -7.853160640810696
      ],
      [
        "million",
        -7.8568976265595
      ],
      [
        "better",
        -7.856988373177673
      ],
      [
        "institution",
        -7.879157210482661
      ],
      [
        "given",
        -7.880022607510412
      ],
      [
        "increasing",
        -7.88018564823869
      ],
      [
        "wide",
        -7.880426192731716
      ],
      [
        "japan",
        -7.886455362973696
      ],
      [
        "made",
        -7.894345034315845
      ],
      [
        "7",
        -7.903265408944465
      ],
      [
        "spend",
        -7.904061311496058
      ],
      [
        "account",
        -7.904724681950512
      ],
      [
        "special",
        -7.908038590646792
      ],
      [
        "election",
        -7.909646407130367
      ],
      [
        "fact",
        -7.912807211884978
      ],
      [
        "aid",
        -7.913653992509212
      ],
      [
        "business",
        -7.920959029267908
      ],
      [
        "201",
        -7.923285876665789
      ],
      [
        "course",
        -7.925052256711024
      ],
      [
        "ation",
        -7.927574504634974
      ],
      [
        "service",
        -7.9386330197962796
      ],
      [
        "provide",
        -7.940033942871817
      ],
      [
        "ization",
        -7.942177353363698
      ],
      [
        "private",
        -7.942410355020288
      ],
      [
        "face",
        -7.9438955663322375
      ],
      [
        "asia",
        -7.944487910731279
      ],
      [
        "use",
        -7.945983162878861
      ],
      [
        "being",
        -7.9464482056361785
      ],
      [
        "particular",
        -7.947417532030279
      ],
      [
        "did",
        -7.947566771563566
      ],
      [
        "order",
        -7.9536878926779275
      ],
      [
        "thing",
        -7.962234087880505
      ],
      [
        "effective",
        -7.962510562595315
      ],
      [
        "east",
        -7.963285751704559
      ],
      [
        "minister",
        -7.963994061217629
      ],
      [
        "point",
        -7.969706221942503
      ],
      [
        "base",
        -7.970411338894827
      ],
      [
        "value",
        -7.972929982872828
      ],
      [
        "three",
        -7.97310500491688
      ],
      [
        "'",
        -7.976318688585523
      ],
      [
        "create",
        -7.976955326637309
      ],
      [
        "greece",
        -7.98324223657068
      ],
      [
        "region",
        -7.9880340713393965
      ],
      [
        "ather",
        -7.993573234087806
      ],
      [
        "emerg",
        -7.994038124826556
      ],
      [
        "currenc",
        -7.998106389478569
      ],
      [
        "often",
        -8.000870886122945
      ],
      [
        "rise",
        -8.01164587982632
      ],
      [
        "oil",
        -8.013783640336086
      ],
      [
        "whe",
        -8.015892872952222
      ],
      [
        ").",
        -8.016555316342984
      ],
      [
        "toward",
        -8.020656015744885
      ],
      [
        "nuclear",
        -8.021110234754653
      ],
      [
        "among",
        -8.027640856793063
      ],
      [
        "put",
        -8.028644568455757
      ],
      [
        "official",
        -8.029452148928359
      ],
      [
        "question",
        -8.030367092761654
      ],
      [
        "highe",
        -8.032476414499662
      ],
      [
        "very",
        -8.036173195037968
      ],
      [
        "before",
        -8.036943368678068
      ],
      [
        "polici",
        -8.038647234737253
      ],
      [
        "program",
        -8.043873547093007
      ],
      [
        "ary",
        -8.045078608047213
      ],
      [
        "reason",
        -8.046089700945661
      ],
      [
        "democrac",
        -8.050592532487883
      ],
      [
        "turn",
        -8.058273796522066
      ],
      [
        "free",
        -8.06274034038673
      ],
      [
        "past",
        -8.064616591184594
      ],
      [
        "great",
        -8.066499434749433
      ],
      [
        "why",
        -8.06861468947848
      ],
      [
        "view",
        -8.073353330683126
      ],
      [
        "9",
        -8.074286209281787
      ],
      [
        "4",
        -8.079804145045411
      ],
      [
        "second",
        -8.081742022219267
      ],
      [
        "abilit",
        -8.084498069272932
      ],
      [
        "role",
        -8.085559605163624
      ],
      [
        "iran",
        -8.088095870738648
      ],
      [
        "inflation",
        -8.088296749095715
      ],
      [
        "limit",
        -8.089204499353492
      ],
      [
        "education",
        -8.089480602034357
      ],
      [
        "want",
        -8.090417223909668
      ],
      [
        "follow",
        -8.090907894487835
      ],
      [
        "share",
        -8.09160736976846
      ],
      [
        "south",
        -8.094025977184092
      ],
      [
        "allow",
        -8.094977794197831
      ],
      [
        "short",
        -8.09633754412355
      ],
      [
        "place",
        -8.096507587364695
      ],
      [
        "ittle",
        -8.098194634925871
      ],
      [
        "money",
        -8.100448090315806
      ],
      [
        "down",
        -8.101784552877113
      ],
      [
        "decision",
        -8.102057191602139
      ],
      [
        "next",
        -8.104143717365641
      ],
      [
        "uring",
        -8.107222857193875
      ],
      [
        "strong",
        -8.109095312713695
      ],
      [
        "group",
        -8.113605945513727
      ],
      [
        "middle",
        -8.114852551616904
      ],
      [
        "job",
        -8.128200768566021
      ],
      [
        "measure",
        -8.128508804459624
      ],
      [
        "resource",
        -8.131061415392615
      ],
      [
        "greate",
        -8.13312559689664
      ],
      [
        "further",
        -8.13587436206036
      ],
      [
        "reduce",
        -8.136994581156166
      ],
      [
        "action",
        -8.140521074304804
      ],
      [
        "process",
        -8.148313091934503
      ],
      [
        "approach",
        -8.149895892716525
      ],
      [
        "companie",
        -8.150212778040753
      ],
      [
        "start",
        -8.150536598826186
      ],
      [
        "difficult",
        -8.152192756724052
      ],
      [
        "finance",
        -8.153976372862633
      ],
      [
        "control",
        -8.156463741205773
      ],
      [
        "lower",
        -8.157031132134968
      ],
      [
        "export",
        -8.158210999326347
      ],
      [
        "ally",
        -8.16125754099972
      ],
      [
        "few",
        -8.163251129356176
      ],
      [
        "effect",
        -8.164495273098325
      ],
      [
        "poor",
        -8.165111559133905
      ],
      [
        "making",
        -8.16670469875599
      ],
      [
        "france",
        -8.16844636099992
      ],
      [
        "her",
        -8.171253493618815
      ],
      [
        "centur",
        -8.171926368367789
      ],
      [
        "deficit",
        -8.174025019517346
      ],
      [
        "old",
        -8.17603854257902
      ],
      [
        "close",
        -8.176554205802901
      ],
      [
        "labor",
        -8.177076366886018
      ],
      [
        "agreement",
        -8.1805052623473
      ],
      [
        "opportunit",
        -8.181769078589626
      ],
      [
        "domestic",
        -8.182466474774897
      ],
      [
        "population",
        -8.185651813901636
      ],
      [
        "around",
        -8.187731842802354
      ],
      [
        "potential",
        -8.187783273384653
      ],
      [
        "fall",
        -8.190767221948429
      ],
      [
        "come",
        -8.191043277459865
      ],
      [
        "you",
        -8.195657761242703
      ],
      [
        "hard",
        -8.196598666949992
      ],
      [
        "address",
        -8.197852174829332
      ],
      [
        "societ",
        -8.199300357335563
      ],
      [
        "strateg",
        -8.20041284485228
      ],
      [
        "coming",
        -8.2038679097969
      ],
      [
        "similar",
        -8.208830636249676
      ],
      [
        "dollar",
        -8.212592462875012
      ],
      [
        "technolog",
        -8.21366951114394
      ],
      [
        "concern",
        -8.22137106042808
      ],
      [
        "con",
        -8.222900517669466
      ],
      [
        "fail",
        -8.223864947268055
      ],
      [
        "significant",
        -8.224628898155931
      ],
      [
        "um",
        -8.226351029875993
      ],
      [
        "run",
        -8.232069660818418
      ],
      [
        "v",
        -8.232362261829422
      ],
      [
        "different",
        -8.23518246609666
      ],
      [
        "obama",
        -8.242562915750785
      ],
      [
        "play",
        -8.243881190098833
      ],
      [
        "member",
        -8.24562848377344
      ],
      [
        "care",
        -8.2469554694385
      ],
      [
        "thus",
        -8.247655202826344
      ],
      [
        "omen",
        -8.24835805418086
      ],
      [
        "project",
        -8.250343454522
      ],
      [
        "open",
        -8.252408707178242
      ],
      [
        "common",
        -8.257538959595358
      ],
      [
        "ago",
        -8.265279290519183
      ],
      [
        "plan",
        -8.26630459824505
      ],
      [
        "lead",
        -8.266471497800456
      ],
      [
        "asset",
        -8.26773779051462
      ],
      [
        "month",
        -8.267845023342659
      ],
      [
        "law",
        -8.268869011617202
      ],
      [
        "number",
        -8.27117829464365
      ],
      [
        "reach",
        -8.271422318741639
      ],
      [
        "africa",
        -8.276938816537491
      ],
      [
        "citizens",
        -8.280623903944882
      ],
      [
        "led",
        -8.280880241112357
      ],
      [
        "consider",
        -8.286512726508308
      ],
      [
        "nation",
        -8.288561757600567
      ],
      [
        "exchange",
        -8.289014060274441
      ],
      [
        "near",
        -8.290718954028144
      ],
      [
        "look",
        -8.293017733027868
      ],
      [
        "focus",
        -8.294412642859132
      ],
      [
        "ough",
        -8.295829387885583
      ],
      [
        "balance",
        -8.299541930764082
      ],
      [
        "possibl",
        -8.30041409368798
      ],
      [
        "act",
        -8.300507987398685
      ],
      [
        "model",
        -8.301770843646345
      ],
      [
        "each",
        -8.305255233156299
      ],
      [
        "ways",
        -8.311385950103517
      ],
      [
        "west",
        -8.313913397979032
      ],
      [
        "german",
        -8.315004980824229
      ],
      [
        "advance",
        -8.316391790224303
      ],
      [
        "believe",
        -8.316749413474547
      ],
      [
        "communit",
        -8.317282018777885
      ],
      [
        "return",
        -8.319199916513785
      ],
      [
        "key",
        -8.322654776847799
      ],
      [
        "leas",
        -8.32282302904542
      ],
      [
        "50",
        -8.323905130085745
      ],
      [
        "treat",
        -8.329757990269076
      ],
      [
        "lack",
        -8.329758358326725
      ],
      [
        "ism",
        -8.330943653245374
      ],
      [
        "know",
        -8.331234773598638
      ],
      [
        "serious",
        -8.333179318087389
      ],
      [
        "rapid",
        -8.333181320153177
      ],
      [
        "get",
        -8.333512923784784
      ],
      [
        "longe",
        -8.334149146527091
      ],
      [
        "never",
        -8.334469370942706
      ],
      [
        "side",
        -8.33855382926039
      ],
      [
        "credit",
        -8.340359494045495
      ],
      [
        "conflict",
        -8.341841845866501
      ],
      [
        "israel",
        -8.342244598154634
      ],
      [
        "establish",
        -8.343170160162337
      ],
      [
        "budget",
        -8.344479072240695
      ],
      [
        "infrastructure",
        -8.3456089749548
      ],
      [
        "think",
        -8.358046509063497
      ],
      [
        "full",
        -8.362193947790857
      ],
      [
        "pay",
        -8.362481017473172
      ],
      [
        "access",
        -8.363200871237478
      ],
      [
        "best",
        -8.365831599831028
      ],
      [
        "peace",
        -8.367581219188377
      ],
      [
        "local",
        -8.368333542411001
      ],
      [
        "regime",
        -8.369568888994927
      ],
      [
        "third",
        -8.369591068070974
      ],
      [
        "investor",
        -8.371120523235142
      ],
      [
        "espite",
        -8.3753715595568
      ],
      [
        "prevent",
        -8.377082258234344
      ],
      [
        "solution",
        -8.378014801261175
      ],
      [
        "stabilit",
        -8.380264327553004
      ],
      [
        "show",
        -8.381231632049971
      ],
      [
        "authorit",
        -8.384500020141036
      ],
      [
        "general",
        -8.38509320212195
      ],
      [
        "democratic",
        -8.38542975327605
      ],
      [
        "impact",
        -8.38636067806954
      ],
      [
        "prime",
        -8.386651044707712
      ],
      [
        "reserve",
        -8.38966737403246
      ],
      [
        "000",
        -8.391138296782591
      ],
      [
        "target",
        -8.39284426907902
      ],
      [
        "fuel",
        -8.39546281021196
      ],
      [
        "6",
        -8.402729698368184
      ],
      [
        "head",
        -8.408654599164468
      ],
      [
        "certain",
        -8.409094083525282
      ],
      [
        "food",
        -8.410000095141765
      ],
      [
        "half",
        -8.411488224584975
      ],
      [
        "once",
        -8.412433139487948
      ],
      [
        "anti",
        -8.413731927540866
      ],
      [
        "hip",
        -8.41469594099691
      ],
      [
        "life",
        -8.415058076253803
      ],
      [
        "bond",
        -8.416962372938967
      ],
      [
        "worker",
        -8.417515401076223
      ],
      [
        "imply",
        -8.41878430507901
      ],
      [
        "direct",
        -8.419256519663186
      ],
      [
        "cut",
        -8.419462873708037
      ],
      [
        "home",
        -8.421367602559279
      ],
      [
        "annual",
        -8.422041498225235
      ],
      [
        "shift",
        -8.424999529398981
      ],
      [
        "implement",
        -8.42608852131316
      ],
      [
        "hope",
        -8.426097484598134
      ],
      [
        "together",
        -8.42744912327057
      ],
      [
        "0",
        -8.427742873154141
      ],
      [
        "move",
        -8.431686920573965
      ],
      [
        "elve",
        -8.434159101944768
      ],
      [
        "left",
        -8.436811821962372
      ],
      [
        "ember",
        -8.439521594224278
      ],
      [
        "economist",
        -8.442020923725977
      ],
      [
        "came",
        -8.443127080847862
      ],
      [
        "deal",
        -8.444477714065268
      ],
      [
        "claim",
        -8.447172663009658
      ],
      [
        "firm",
        -8.450371177444248
      ],
      [
        "relative",
        -8.453796383713165
      ],
      [
        "ither",
        -8.453963880245759
      ],
      [
        "find",
        -8.454764145805012
      ],
      [
        "step",
        -8.456051666235991
      ],
      [
        "progress",
        -8.457834584842132
      ],
      [
        "idea",
        -8.464845549174498
      ],
      [
        "childre",
        -8.464946141497668
      ],
      [
        "govern",
        -8.469127394043502
      ],
      [
        "according",
        -8.469757994434296
      ],
      [
        "off",
        -8.471630910186098
      ],
      [
        "threat",
        -8.471637699801352
      ],
      [
        "regional",
        -8.475278051938265
      ],
      [
        "rising",
        -8.478285074222933
      ],
      [
        "members",
        -8.481006919383095
      ],
      [
        "western",
        -8.484545944627747
      ],
      [
        "small",
        -8.488758815612503
      ],
      [
        "organization",
        -8.494693852900685
      ],
      [
        "reflect",
        -8.49745312183014
      ],
      [
        "sumption",
        -8.49903491201442
      ],
      [
        "age",
        -8.49963608564233
      ],
      [
        "offer",
        -8.502841466562346
      ],
      [
        "goal",
        -8.506366540071648
      ],
      [
        "final",
        -8.508708450555872
      ],
      [
        "former",
        -8.508727134869684
      ],
      [
        "position",
        -8.508766403766874
      ],
      [
        "exist",
        -8.510721502850704
      ],
      [
        "haps",
        -8.518146869050767
      ],
      [
        "individual",
        -8.519519517159303
      ],
      [
        "histor",
        -8.522678371312082
      ],
      [
        "een",
        -8.52383792085025
      ],
      [
        "politic",
        -8.526581992228119
      ],
      [
        "employ",
        -8.527634319870984
      ],
      [
        "bring",
        -8.529142508919552
      ],
      [
        "five",
        -8.533123164483019
      ],
      [
        "ensure",
        -8.535740190654884
      ],
      [
        "form",
        -8.537401686824623
      ],
      [
        "recover",
        -8.537835587058549
      ],
      [
        "pressure",
        -8.539075941222345
      ],
      [
        "true",
        -8.543790286002924
      ],
      [
        "line",
        -8.546322120101475
      ],
      [
        "border",
        -8.547241240491445
      ],
      [
        "condition",
        -8.547700770472481
      ],
      [
        "standard",
        -8.547942737338497
      ],
      [
        "boost",
        -8.54819225693933
      ],
      [
        "iraq",
        -8.549445404878476
      ],
      [
        "fear",
        -8.556701666822715
      ],
      [
        "uk",
        -8.565541557780858
      ],
      [
        "water",
        -8.566693281134032
      ],
      [
        "briti",
        -8.568254786223832
      ],
      [
        "consequence",
        -8.568267486419566
      ],
      [
        "decline",
        -8.568785908171407
      ],
      [
        "import",
        -8.571988211034341
      ],
      [
        "response",
        -8.572941100291459
      ],
      [
        "produce",
        -8.57492547390977
      ],
      [
        "experience",
        -8.575283836213146
      ],
      [
        "wise",
        -8.57584892851376
      ],
      [
        "him",
        -8.577633863584312
      ],
      [
        "199",
        -8.577711679817586
      ],
      [
        "research",
        -8.577839825291257
      ],
      [
        "success",
        -8.57969553802609
      ],
      [
        "avoid",
        -8.579944858035752
      ],
      [
        "failure",
        -8.580813707334531
      ],
      [
        "korea",
        -8.58494816115505
      ],
      [
        "used",
        -8.586625970826045
      ],
      [
        "innovation",
        -8.587144020791431
      ],
      [
        "politician",
        -8.588770582431426
      ],
      [
        "improve",
        -8.589875733719943
      ],
      [
        "post",
        -8.592267874058678
      ],
      [
        "matter",
        -8.593639451318808
      ],
      [
        "saving",
        -8.594001890340746
      ],
      [
        "main",
        -8.594470062913532
      ],
      [
        "attack",
        -8.595895692793984
      ],
      [
        "pover",
        -8.596356147782657
      ],
      [
        "protect",
        -8.596611399301672
      ],
      [
        "man",
        -8.598809430504591
      ],
      [
        "unemploy",
        -8.600890852415585
      ],
      [
        "sustain",
        -8.601910392246445
      ],
      [
        "french",
        -8.606490019264058
      ],
      [
        "factor",
        -8.609637700651732
      ],
      [
        "rich",
        -8.60983911423096
      ],
      [
        "consumer",
        -8.610275833060744
      ],
      [
        "north",
        -8.613676833690628
      ],
      [
        "bad",
        -8.614081233587154
      ],
      [
        "gas",
        -8.614687483208355
      ],
      [
        "fundamental",
        -8.617624564407599
      ],
      [
        "sense",
        -8.619490134630105
      ],
      [
        "report",
        -8.620611824999244
      ],
      [
        "suggest",
        -8.620971257797745
      ],
      [
        "unit",
        -8.623291153099595
      ],
      [
        "arab",
        -8.623741200908809
      ],
      [
        "keep",
        -8.624325553941759
      ],
      [
        "structural",
        -8.624354630588758
      ],
      [
        "30",
        -8.626078428444448
      ],
      [
        "fight",
        -8.626440709380265
      ],
      [
        "average",
        -8.631888992951373
      ],
      [
        "big",
        -8.63436669966892
      ],
      [
        "unti",
        -8.637240706575312
      ],
      [
        "necessar",
        -8.638405794575075
      ],
      [
        "commission",
        -8.640389050652804
      ],
      [
        "broad",
        -8.640870559047494
      ],
      [
        "live",
        -8.648033922330173
      ],
      [
        "achieve",
        -8.64892270734006
      ],
      [
        "household",
        -8.649507258180968
      ],
      [
        "amount",
        -8.651287590761305
      ],
      [
        "brita",
        -8.654480367966684
      ],
      [
        "promise",
        -8.654538750161256
      ],
      [
        "ther",
        -8.655156854290038
      ],
      [
        "source",
        -8.655505383349322
      ],
      [
        "found",
        -8.656562369765908
      ],
      [
        "supply",
        -8.657893711382572
      ],
      [
        "disease",
        -8.657912455205398
      ],
      [
        "beyon",
        -8.660952104984505
      ],
      [
        "capacit",
        -8.661315808159454
      ],
      [
        "wealth",
        -8.661724877972611
      ],
      [
        "policymaker",
        -8.66491200028078
      ],
      [
        "federal",
        -8.666469640838248
      ],
      [
        "productiv",
        -8.66748005127955
      ],
      [
        "include",
        -8.668238962534208
      ],
      [
        "single",
        -8.669670214340734
      ],
      [
        "argue",
        -8.67037100831838
      ],
      [
        "appear",
        -8.672208755200863
      ],
      [
        "raise",
        -8.67286073481353
      ],
      [
        "seek",
        -8.67821511169985
      ],
      [
        "sure",
        -8.679544505521518
      ],
      [
        "10",
        -8.67994856158072
      ],
      [
        "wage",
        -8.680355485924046
      ],
      [
        "information",
        -8.683442758007736
      ],
      [
        "maintain",
        -8.685556668690502
      ],
      [
        "else",
        -8.685807196794766
      ],
      [
        "bush",
        -8.685892364819079
      ],
      [
        "rest",
        -8.686418982533578
      ],
      [
        "men",
        -8.689034826136403
      ],
      [
        "carbon",
        -8.694290997760085
      ],
      [
        "greek",
        -8.69435517935294
      ],
      [
        "production",
        -8.698107599689815
      ],
      [
        "debate",
        -8.698582348319217
      ],
      [
        "stock",
        -8.698835223350645
      ],
      [
        "sustainabl",
        -8.699515669387322
      ],
      [
        "happen",
        -8.69961427954522
      ],
      [
        "natural",
        -8.701451999014118
      ],
      [
        "cooperati",
        -8.705274929926814
      ],
      [
        "school",
        -8.706769085659865
      ],
      [
        "turke",
        -8.707735109048159
      ],
      [
        "safe",
        -8.708113095893069
      ],
      [
        "unlike",
        -8.708271221268312
      ],
      [
        "recession",
        -8.710395572672937
      ],
      [
        "four",
        -8.720391988532242
      ],
      [
        "data",
        -8.721734761197915
      ],
      [
        "test",
        -8.72223483399086
      ],
      [
        "asian",
        -8.725568027023211
      ],
      [
        "vote",
        -8.725846526009164
      ],
      [
        "stan",
        -8.727030390690093
      ],
      [
        "refugee",
        -8.72734391974088
      ],
      [
        "spread",
        -8.728603822288445
      ],
      [
        "cross",
        -8.729203540041711
      ],
      [
        "competitive",
        -8.733097124823157
      ],
      [
        "15",
        -8.734049711592931
      ],
      [
        "gain",
        -8.734517570810446
      ],
      [
        "administration",
        -8.735874681263628
      ],
      [
        "strengthen",
        -8.735915924853895
      ],
      [
        "campaign",
        -8.736257628126157
      ],
      [
        "center",
        -8.736384753543584
      ],
      [
        "\"",
        -8.737719667732708
      ],
      [
        "period",
        -8.739518077359484
      ],
      [
        "land",
        -8.743277433252107
      ],
      [
        "ous",
        -8.74435834928457
      ],
      [
        "massive",
        -8.745185827140894
      ],
      [
        "kind",
        -8.745763173325738
      ],
      [
        "revolution",
        -8.746083690324395
      ],
      [
        "entire",
        -8.748869900744722
      ],
      [
        "commitment",
        -8.750847099062725
      ],
      [
        "accept",
        -8.75189831706566
      ],
      [
        "deep",
        -8.752399411801617
      ],
      [
        "give",
        -8.75249157385214
      ],
      [
        "taken",
        -8.757221138456295
      ],
      [
        "scale",
        -8.759130517541088
      ],
      [
        "recognize",
        -8.759192370510181
      ],
      [
        "arly",
        -8.759775045828977
      ],
      [
        "regulation",
        -8.760139015338396
      ],
      [
        "leader",
        -8.761400613023483
      ],
      [
        "expand",
        -8.762025199184528
      ],
      [
        "emission",
        -8.763510761772146
      ],
      [
        "suffer",
        -8.764380994988748
      ],
      [
        "regulator",
        -8.764450452503517
      ],
      [
        "hold",
        -8.768112234128703
      ],
      [
        "taly",
        -8.77081673057269
      ],
      [
        "flow",
        -8.77263289101474
      ],
      [
        "defense",
        -8.777272834935157
      ],
      [
        "environmental",
        -8.7801822961664
      ],
      [
        "outcome",
        -8.782894036773145
      ],
      [
        "hav",
        -8.783148277884834
      ],
      [
        "movement",
        -8.783924016787743
      ],
      [
        "drive",
        -8.784313138817017
      ],
      [
        "product",
        -8.787181582197402
      ],
      [
        "talk",
        -8.789021188076918
      ],
      [
        "successful",
        -8.793999796110086
      ],
      [
        "generation",
        -8.794007029924508
      ],
      [
        "meeting",
        -8.79607075928018
      ],
      [
        "integration",
        -8.796463549213103
      ],
      [
        "council",
        -8.79667207880884
      ],
      [
        "famil",
        -8.800602820666104
      ],
      [
        "add",
        -8.80071933857164
      ],
      [
        "invest",
        -8.807910345774363
      ],
      [
        "palestinian",
        -8.808504551859826
      ],
      [
        "inequalit",
        -8.809514530144154
      ],
      [
        "environment",
        -8.809528017700032
      ],
      [
        "death",
        -8.8125332221296
      ],
      [
        "strategic",
        -8.812608524783926
      ],
      [
        "working",
        -8.812825009403003
      ],
      [
        "brazil",
        -8.818413691596575
      ],
      [
        "prosper",
        -8.822496048254202
      ],
      [
        "learn",
        -8.82627533375965
      ],
      [
        "ve",
        -8.826329580620346
      ],
      [
        "total",
        -8.826533444636897
      ],
      [
        "depend",
        -8.830568218020288
      ],
      [
        "difference",
        -8.834615765016355
      ],
      [
        "hel",
        -8.836408367158722
      ],
      [
        "congress",
        -8.838678837749761
      ],
      [
        "reduc",
        -8.840447057401672
      ],
      [
        "late",
        -8.843019319813695
      ],
      [
        "push",
        -8.844912880162845
      ],
      [
        "taking",
        -8.850556569219648
      ],
      [
        "agenda",
        -8.851018859407603
      ],
      [
        "leading",
        -8.851252542921248
      ],
      [
        "powerful",
        -8.851497954489394
      ],
      [
        "influence",
        -8.853027184048447
      ],
      [
        "responsibilit",
        -8.85308177651979
      ],
      [
        "industrial",
        -8.855274976448623
      ],
      [
        "slow",
        -8.85595591010722
      ],
      [
        "activit",
        -8.859278892195906
      ],
      [
        "negotiation",
        -8.86087957679812
      ],
      [
        "weapon",
        -8.861406538359272
      ],
      [
        "trump",
        -8.863481678921065
      ],
      [
        "principle",
        -8.863498533609171
      ],
      [
        "alone",
        -8.867737024959002
      ],
      [
        "word",
        -8.868314251237404
      ],
      [
        "air",
        -8.870765396644376
      ],
      [
        "severa",
        -8.871235980785539
      ],
      [
        "syria",
        -8.871592669264235
      ],
      [
        "egypt",
        -8.871869515148909
      ],
      [
        "financ",
        -8.875139706162333
      ],
      [
        "intervention",
        -8.87810638997697
      ],
      [
        "muslim",
        -8.878268357818428
      ],
      [
        "borrow",
        -8.87919875067076
      ],
      [
        "adopt",
        -8.882432877824566
      ],
      [
        "actual",
        -8.882690969543994
      ],
      [
        "agree",
        -8.884739562101531
      ],
      [
        "ask",
        -8.886236267503323
      ],
      [
        "relations",
        -8.886651504765407
      ],
      [
        "initiative",
        -8.88680970901574
      ],
      [
        "modern",
        -8.889151126205116
      ],
      [
        "2010",
        -8.890072516798028
      ],
      [
        "others",
        -8.892618533883144
      ],
      [
        "legal",
        -8.8928282943625
      ],
      [
        "essential",
        -8.89326085180934
      ],
      [
        "collapse",
        -8.894386508773511
      ],
      [
        "alternative",
        -8.895417982819591
      ],
      [
        "1990",
        -8.897898126192635
      ],
      [
        "corrupti",
        -8.899175857140756
      ],
      [
        "deliver",
        -8.899774275159658
      ],
      [
        "top",
        -8.902830037344405
      ],
      [
        "young",
        -8.905114039586138
      ],
      [
        "done",
        -8.905766622918641
      ],
      [
        "going",
        -8.909322557339216
      ],
      [
        "equal",
        -8.910509810256766
      ],
      [
        "lost",
        -8.910543033924704
      ],
      [
        "attempt",
        -8.911034808460707
      ],
      [
        "loan",
        -8.911097843646754
      ],
      [
        "here",
        -8.91174577506801
      ],
      [
        "building",
        -8.91330158507574
      ],
      [
        "aim",
        -8.913751735380828
      ],
      [
        "quick",
        -8.917275022233756
      ],
      [
        "estimate",
        -8.920472152696131
      ],
      [
        "situation",
        -8.921704655285156
      ],
      [
        "russian",
        -8.922047959143974
      ],
      [
        "nor",
        -8.92278889160976
      ],
      [
        "moral",
        -8.92319154084743
      ],
      [
        "freedom",
        -8.92404293794026
      ],
      [
        "owing",
        -8.924187581523046
      ],
      [
        "dependenc",
        -8.926046723084095
      ],
      [
        "liberal",
        -8.926049752810599
      ],
      [
        "creat",
        -8.927149040496268
      ],
      [
        "traditional",
        -8.928198907351065
      ],
      [
        "choice",
        -8.928386220331372
      ],
      [
        "hind",
        -8.929419886618735
      ],
      [
        "ukraine",
        -8.930623710327868
      ],
      [
        "thems",
        -8.931532537436283
      ],
      [
        "voter",
        -8.934128676612552
      ],
      [
        "popular",
        -8.934393434621994
      ],
      [
        "build",
        -8.934607535762755
      ],
      [
        "times",
        -8.93494630652858
      ],
      [
        "worse",
        -8.939998799767022
      ],
      [
        "expected",
        -8.940144768958586
      ],
      [
        "leave",
        -8.941513728135575
      ],
      [
        "incentive",
        -8.941788614589301
      ],
      [
        "try",
        -8.943229098242128
      ],
      [
        "huge",
        -8.944152562965801
      ],
      [
        "pakistan",
        -8.946975323745264
      ],
      [
        "civil",
        -8.94799754579953
      ],
      [
        "revenue",
        -8.948707184131194
      ],
      [
        "affect",
        -8.955355453563671
      ],
      [
        "manage",
        -8.9558428064122
      ],
      [
        "later",
        -8.96037265313086
      ],
      [
        "ers",
        -8.96256932633731
      ],
      [
        "austeri",
        -8.962609679882721
      ],
      [
        "industr",
        -8.966832743898898
      ],
      [
        "something",
        -8.968083501808536
      ],
      [
        "trillion",
        -8.96944210812249
      ],
      [
        "london",
        -8.971788880529921
      ],
      [
        "york",
        -8.974359594647478
      ],
      [
        "confiden",
        -8.97457377331219
      ],
      [
        "taxe",
        -8.975713110871862
      ],
      [
        "indian",
        -8.979919368602122
      ],
      [
        "statu",
        -8.98019540927491
      ],
      [
        "threaten",
        -8.983694969435177
      ],
      [
        "design",
        -8.987169170656815
      ],
      [
        "external",
        -8.989067187170303
      ],
      [
        "lives",
        -8.990826704624162
      ],
      [
        "science",
        -8.992706035895985
      ],
      [
        "path",
        -8.995060218874404
      ],
      [
        "contrast",
        -8.995385752731146
      ],
      [
        "probabl",
        -8.995390509856104
      ],
      [
        "moment",
        -8.995708514319118
      ],
      [
        "regard",
        -8.996900942248084
      ],
      [
        "bove",
        -8.997795295902336
      ],
      [
        "enable",
        -8.998563752680557
      ],
      [
        "wrong",
        -9.000072759648683
      ],
      [
        "evidence",
        -9.000176188342714
      ],
      [
        "relationship",
        -9.000417389142175
      ],
      [
        "prove",
        -9.00069304950106
      ],
      [
        "pro",
        -9.001832748819776
      ],
      [
        "afghani",
        -9.008530499561012
      ],
      [
        "neighbor",
        -9.009778346264728
      ],
      [
        "ence",
        -9.009868977733545
      ],
      [
        "involve",
        -9.01236900144403
      ],
      [
        "soon",
        -9.013027031311868
      ],
      [
        "prospect",
        -9.014566019859252
      ],
      [
        "#",
        -9.017125724506075
      ],
      [
        "understand",
        -9.017701318198423
      ],
      [
        "week",
        -9.019062760136585
      ],
      [
        "polic",
        -9.019121583728513
      ],
      [
        "ultimate",
        -9.022022627654923
      ],
      [
        "reduction",
        -9.022098125436965
      ],
      [
        "stead",
        -9.023074045916307
      ],
      [
        "living",
        -9.024900195543214
      ],
      [
        "pposition",
        -9.027159262568478
      ],
      [
        "extreme",
        -9.029410885310819
      ],
      [
        "kingdom",
        -9.029427066323613
      ],
      [
        "answer",
        -9.031117944930024
      ],
      [
        "receive",
        -9.031803275123025
      ],
      [
        "represent",
        -9.031900738871958
      ],
      [
        "known",
        -9.032579119918726
      ],
      [
        "advantage",
        -9.034055430016442
      ],
      [
        "encourage",
        -9.03687073221486
      ],
      [
        "framework",
        -9.036922171182724
      ],
      [
        "partie",
        -9.0381687941799
      ],
      [
        "away",
        -9.040994612153295
      ],
      [
        "meet",
        -9.042726638777399
      ],
      [
        "sovereign",
        -9.043669901311173
      ],
      [
        "green",
        -9.044330888063872
      ],
      [
        "japanese",
        -9.044413409346724
      ],
      [
        "house",
        -9.045886255164522
      ],
      [
        "comes",
        -9.046838515925877
      ],
      [
        "structure",
        -9.048842029259996
      ],
      [
        "record",
        -9.049405315621023
      ],
      [
        "mechanism",
        -9.05191182306173
      ],
      [
        "avail",
        -9.052776262900306
      ],
      [
        "pre",
        -9.053301143170522
      ],
      [
        "parliament",
        -9.05546051037173
      ],
      [
        "spain",
        -9.056632153237103
      ],
      [
        "creditor",
        -9.056868190902474
      ],
      [
        "rough",
        -9.05961106566456
      ],
      [
        "40",
        -9.063761046526077
      ],
      [
        "larges",
        -9.065887742264497
      ],
      [
        "egan",
        -9.069165910186825
      ],
      [
        "weak",
        -9.069399273998686
      ],
      [
        "class",
        -9.069678899039253
      ],
      [
        "immediate",
        -9.06977053691401
      ],
      [
        "nstead",
        -9.070421251538754
      ],
      [
        "qualit",
        -9.072530463100138
      ],
      [
        "buy",
        -9.074037505919623
      ],
      [
        "trend",
        -9.076587291282632
      ],
      [
        "respect",
        -9.077415378395873
      ],
      [
        "surplus",
        -9.077521963794215
      ],
      [
        "option",
        -9.079764033671042
      ],
      [
        "cancer",
        -9.08031606518081
      ],
      [
        "media",
        -9.083289236118224
      ],
      [
        "obvious",
        -9.085333941067383
      ],
      [
        "basic",
        -9.086038876540108
      ],
      [
        "ive",
        -9.086465735548419
      ],
      [
        "profit",
        -9.088852136950532
      ],
      [
        "republican",
        -9.089981571977406
      ],
      [
        "ground",
        -9.090259369959874
      ],
      [
        "elect",
        -9.090443138582138
      ],
      [
        "previous",
        -9.093208013140746
      ],
      [
        "competition",
        -9.09584821889933
      ],
      [
        "behavior",
        -9.098493518060902
      ],
      [
        "gap",
        -9.101279486966098
      ],
      [
        "violen",
        -9.103691660725937
      ],
      [
        "fac",
        -9.103694995741737
      ],
      [
        "along",
        -9.104687589294791
      ],
      [
        "beginning",
        -9.106559045662102
      ],
      [
        "chance",
        -9.10674007943614
      ],
      [
        "warm",
        -9.107087348202807
      ],
      [
        "attenti",
        -9.108109904399964
      ],
      [
        "practice",
        -9.11067266532153
      ],
      [
        "contribute",
        -9.11278076125268
      ],
      [
        "corporate",
        -9.114309470497306
      ],
      [
        "substantial",
        -9.115365139968617
      ],
      [
        "sharp",
        -9.119225247474652
      ],
      [
        "latin",
        -9.122323883931964
      ],
      [
        "explain",
        -9.122627295518496
      ],
      [
        "majorit",
        -9.123014265261158
      ],
      [
        "guarantee",
        -9.128064044748431
      ],
      [
        "resist",
        -9.130832360374294
      ],
      [
        "management",
        -9.132114079968995
      ],
      [
        "critical",
        -9.133170907884402
      ],
      [
        "join",
        -9.134398270333676
      ],
      [
        "burden",
        -9.135077412660026
      ],
      [
        "sign",
        -9.138793273502639
      ],
      [
        "expansion",
        -9.139038085000424
      ],
      [
        "agenc",
        -9.142685580020682
      ],
      [
        "160",
        -9.142957626125087
      ],
      [
        "25",
        -9.144405895704024
      ],
      [
        "african",
        -9.144428102766323
      ],
      [
        "fair",
        -9.14773747516655
      ],
      [
        "save",
        -9.149392844195567
      ],
      [
        "commodit",
        -9.150134101881047
      ],
      [
        "presidential",
        -9.150367278129483
      ],
      [
        "gains",
        -9.152643508184983
      ],
      [
        "realit",
        -9.153013222889598
      ],
      [
        "event",
        -9.15540285275313
      ],
      [
        "damage",
        -9.155859904678081
      ],
      [
        "interne",
        -9.156405114893786
      ],
      [
        "pursue",
        -9.157602050430372
      ],
      [
        "vision",
        -9.158039319597188
      ],
      [
        "six",
        -9.158186054985155
      ],
      [
        "internal",
        -9.161338996637678
      ],
      [
        "universit",
        -9.161354222294019
      ],
      [
        "consensu",
        -9.161357742278213
      ],
      [
        "equit",
        -9.162056067295278
      ],
      [
        "/",
        -9.167011918692548
      ],
      [
        "eventual",
        -9.169910524385838
      ],
      [
        "dangerous",
        -9.169971530881991
      ],
      [
        "100",
        -9.170637597060912
      ],
      [
        "treatment",
        -9.175589954347105
      ],
      [
        "israeli",
        -9.177495596107288
      ],
      [
        "unfortunate",
        -9.178923327618492
      ],
      [
        "manufactur",
        -9.180976006779634
      ],
      [
        "soviet",
        -9.18129795076063
      ],
      [
        "performance",
        -9.181909291518767
      ],
      [
        "mere",
        -9.183165259922724
      ],
      [
        "break",
        -9.183342490653104
      ],
      [
        "stimul",
        -9.191200682690258
      ],
      [
        "bigge",
        -9.191637838667937
      ],
      [
        "12",
        -9.193335053183384
      ],
      [
        "institutional",
        -9.193914116040048
      ],
      [
        "expect",
        -9.196468215925947
      ],
      [
        "efficient",
        -9.1967191213334
      ],
      [
        "protection",
        -9.197587342118823
      ],
      [
        "z",
        -9.197765774051463
      ],
      [
        "propose",
        -9.198131536784407
      ],
      [
        "coal",
        -9.199047323800045
      ],
      [
        "%.",
        -9.199128653452382
      ],
      [
        "makes",
        -9.201252372622182
      ],
      [
        "court",
        -9.202828814917423
      ],
      [
        "ook",
        -9.203870851921451
      ],
      [
        "culture",
        -9.204589345676467
      ],
      [
        "name",
        -9.206445766596978
      ],
      [
        "favor",
        -9.207375208347162
      ],
      [
        "victor",
        -9.207539355425094
      ],
      [
        "&",
        -9.2086875681986
      ],
      [
        "terrorist",
        -9.209848964412792
      ],
      [
        "lesson",
        -9.210535663278467
      ],
      [
        "child",
        -9.213111392860181
      ],
      [
        "size",
        -9.215191083779937
      ],
      [
        "liquid",
        -9.21578140351126
      ],
      [
        "argument",
        -9.21661530794071
      ],
      [
        "proposal",
        -9.216760671611217
      ],
      [
        "islamic",
        -9.219443081352248
      ],
      [
        "transition",
        -9.21964329521574
      ],
      [
        "simple",
        -9.2208226378565
      ],
      [
        "convention",
        -9.222402279542777
      ],
      [
        "cover",
        -9.222833114935344
      ],
      [
        "paris",
        -9.22528511009075
      ],
      [
        "positive",
        -9.22843653542827
      ],
      [
        "summit",
        -9.228439096760226
      ],
      [
        "normal",
        -9.228574284247735
      ],
      [
        "specific",
        -9.228666943011966
      ],
      [
        "respond",
        -9.229283343321518
      ],
      [
        "objective",
        -9.23147744312242
      ],
      [
        "begin",
        -9.232436580529734
      ],
      [
        "historical",
        -9.23500075184408
      ],
      [
        "severe",
        -9.235577059011892
      ],
      [
        "trust",
        -9.238127776819862
      ],
      [
        "bilit",
        -9.23872433282575
      ],
      [
        "complex",
        -9.24232936817875
      ],
      [
        "2011",
        -9.242798072481397
      ],
      [
        "boom",
        -9.245482530304692
      ],
      [
        "drug",
        -9.247456725645876
      ],
      [
        "book",
        -9.247549581933995
      ],
      [
        "rack",
        -9.247940782506959
      ],
      [
        "counter",
        -9.247976123503966
      ],
      [
        "additional",
        -9.24809876909191
      ],
      [
        "acros",
        -9.24816432302754
      ],
      [
        "game",
        -9.248355283246065
      ],
      [
        "forward",
        -9.248822541637594
      ],
      [
        "stable",
        -9.248913263947546
      ],
      [
        "sanction",
        -9.249777327919881
      ],
      [
        "60",
        -9.250139600792727
      ],
      [
        "city",
        -9.25026775132087
      ],
      [
        "outside",
        -9.25106339014359
      ],
      [
        "office",
        -9.251709245418564
      ],
      [
        "doubt",
        -9.25285383947757
      ],
      [
        "putin",
        -9.253249796335522
      ],
      [
        "core",
        -9.253285087081789
      ],
      [
        ";&",
        -9.254062195036528
      ],
      [
        "medi",
        -9.25507739080821
      ],
      [
        "stronge",
        -9.25735404553633
      ],
      [
        "expert",
        -9.259068590370136
      ],
      [
        "industries",
        -9.259462373300334
      ],
      [
        "compare",
        -9.2615553941697
      ],
      [
        "impose",
        -9.264318279783186
      ],
      [
        "candidate",
        -9.265316852423549
      ],
      [
        "basi",
        -9.266506362278982
      ],
      [
        "quarter",
        -9.268228012746881
      ],
      [
        "secretar",
        -9.26871190703185
      ],
      [
        "jun",
        -9.27064320417832
      ],
      [
        "assist",
        -9.271358629917001
      ],
      [
        "protest",
        -9.27174323422858
      ],
      [
        "front",
        -9.274132149369951
      ],
      [
        "promote",
        -9.274399892254316
      ],
      [
        "kong",
        -9.27491906508956
      ],
      [
        "predict",
        -9.275134302212475
      ],
      [
        "creation",
        -9.277459443103327
      ],
      [
        "excessive",
        -9.277983442034516
      ],
      [
        "negative",
        -9.281078392634399
      ],
      [
        "eastern",
        -9.281151356911222
      ],
      [
        "complete",
        -9.282175465318126
      ],
      [
        "hong",
        -9.282246010987915
      ],
      [
        "technological",
        -9.283352264312565
      ],
      [
        "tool",
        -9.285145575036026
      ],
      [
        "weaken",
        -9.287365403068197
      ],
      [
        "default",
        -9.287509076441372
      ],
      [
        "radical",
        -9.28818656083244
      ],
      [
        "provid",
        -9.288299706900862
      ],
      [
        "shar",
        -9.28836980857533
      ],
      [
        "lend",
        -9.289473310509425
      ],
      [
        "relate",
        -9.289866746711493
      ],
      [
        "sound",
        -9.290563059199595
      ],
      [
        "rought",
        -9.29316487894926
      ],
      [
        "urban",
        -9.294220749824666
      ],
      [
        "present",
        -9.295386542493375
      ],
      [
        "worth",
        -9.29687514870962
      ],
      [
        "1980",
        -9.297322872674773
      ],
      [
        "tend",
        -9.297422498297095
      ],
      [
        "output",
        -9.300692621425883
      ],
      [
        "priorit",
        -9.300935564900186
      ],
      [
        "surance",
        -9.304970926167806
      ],
      [
        "payment",
        -9.308277802133443
      ],
      [
        "generate",
        -9.308364714299167
      ],
      [
        "road",
        -9.309182357341161
      ],
      [
        "personal",
        -9.30937386690859
      ],
      [
        "communist",
        -9.309435342438423
      ],
      [
        "sub",
        -9.312618593829061
      ],
      [
        "contain",
        -9.312884499014109
      ],
      [
        "ar",
        -9.316122931810188
      ],
      [
        "terroris",
        -9.317979124209094
      ],
      [
        "washing",
        -9.319400139307174
      ],
      [
        "board",
        -9.319836387162194
      ],
      [
        "deflation",
        -9.31998507368845
      ],
      [
        "bubble",
        -9.32341399393614
      ],
      [
        "impossibl",
        -9.326776923374158
      ],
      [
        "feel",
        -9.329008705566148
      ],
      [
        "nature",
        -9.329985496532698
      ],
      [
        "shock",
        -9.335686273917748
      ],
      [
        "succeed",
        -9.336651621215747
      ],
      [
        "depression",
        -9.338332850224702
      ],
      [
        "sometime",
        -9.34002372596687
      ],
      [
        "using",
        -9.341021653416213
      ],
      [
        "network",
        -9.343409708834598
      ],
      [
        "operation",
        -9.347673935089475
      ],
      [
        "standing",
        -9.34905677325592
      ],
      [
        "body",
        -9.350168962870928
      ],
      [
        "light",
        -9.350321214189112
      ],
      [
        "figure",
        -9.35153152948905
      ],
      [
        "enter",
        -9.352435283162233
      ],
      [
        "cultural",
        -9.353543399604998
      ],
      [
        "crucial",
        -9.353597725344809
      ],
      [
        "yield",
        -9.353598934422957
      ],
      [
        "conference",
        -9.353616856710769
      ],
      [
        "struggle",
        -9.354240911054802
      ],
      [
        "undermine",
        -9.356398020047257
      ],
      [
        "dramatic",
        -9.357028975550808
      ],
      [
        "hous",
        -9.357800598734752
      ],
      [
        "loss",
        -9.35819580807819
      ],
      [
        "adjustment",
        -9.360966057401285
      ],
      [
        "ory",
        -9.361419487841012
      ],
      [
        "confront",
        -9.363858518883559
      ],
      [
        "mid",
        -9.36465927127761
      ],
      [
        "disaster",
        -9.367367434311323
      ],
      [
        "usual",
        -9.367608707812845
      ],
      [
        "patient",
        -9.36951492352224
      ],
      [
        "transfer",
        -9.373242733550622
      ],
      [
        "contrar",
        -9.374350615203525
      ],
      [
        "partnership",
        -9.374568665563594
      ],
      [
        "renmi",
        -9.374660865277528
      ],
      [
        "relie",
        -9.374943101390999
      ],
      [
        "faste",
        -9.376161644740723
      ],
      [
        "independent",
        -9.376175495068889
      ],
      [
        "stop",
        -9.37619157632664
      ],
      [
        "elite",
        -9.377866568108185
      ],
      [
        "ratio",
        -9.381145301834511
      ],
      [
        "conservative",
        -9.38486195048542
      ],
      [
        "bridge",
        -9.385876704794553
      ],
      [
        "extend",
        -9.386527249732456
      ],
      [
        "knowledge",
        -9.388323175071784
      ],
      [
        "considerabl",
        -9.388420595865208
      ],
      [
        "inevitabl",
        -9.38850636856898
      ],
      [
        "company",
        -9.388529303134913
      ],
      [
        "primar",
        -9.388850863098336
      ],
      [
        "visit",
        -9.390638258812547
      ],
      [
        "emergenc",
        -9.393404370740367
      ],
      [
        "draw",
        -9.394234432164916
      ],
      [
        "sept",
        -9.395300797439598
      ],
      [
        "responsibl",
        -9.395437802438835
      ],
      [
        "sufficient",
        -9.397541953302921
      ],
      [
        "study",
        -9.399065488912399
      ],
      [
        "zero",
        -9.399066004491967
      ],
      [
        "expectation",
        -9.399503023149324
      ],
      [
        "rais",
        -9.400798592037212
      ],
      [
        "divers",
        -9.401643955810274
      ],
      [
        "brexit",
        -9.402651742464624
      ],
      [
        "ha",
        -9.404690619851163
      ],
      [
        "banker",
        -9.40552884738354
      ],
      [
        "direction",
        -9.406745939808886
      ],
      [
        "propert",
        -9.408413523898895
      ],
      [
        "ful",
        -9.409518899717254
      ],
      [
        "religious",
        -9.409939149235393
      ],
      [
        "engage",
        -9.410947728180906
      ],
      [
        "serve",
        -9.412302692110066
      ],
      [
        "justice",
        -9.415162173852348
      ],
      [
        "continu",
        -9.416092544597507
      ],
      [
        "vital",
        -9.416800356826887
      ],
      [
        "crime",
        -9.417114613666396
      ],
      [
        "sheet",
        -9.42098845263742
      ],
      [
        "contract",
        -9.421940864661467
      ],
      [
        "hour",
        -9.42337438144354
      ],
      [
        "uncertaint",
        -9.424412574589269
      ],
      [
        "discussion",
        -9.424479184656118
      ],
      [
        "link",
        -9.425474578758612
      ],
      [
        "11",
        -9.425823874914546
      ],
      [
        "losse",
        -9.42763015921112
      ],
      [
        "affair",
        -9.428193772847003
      ],
      [
        "enterprise",
        -9.42825224892103
      ],
      [
        "trad",
        -9.429732083146419
      ],
      [
        "q",
        -9.430402265381542
      ],
      [
        "j",
        -9.430908013754399
      ],
      [
        "street",
        -9.431792062152905
      ],
      [
        "assume",
        -9.432985386707411
      ],
      [
        "dispute",
        -9.435569721039986
      ],
      [
        "hamas",
        -9.43591702050037
      ],
      [
        "nato",
        -9.437580272380442
      ],
      [
        "root",
        -9.442185708637698
      ],
      [
        "citi",
        -9.444006643166052
      ],
      [
        "cold",
        -9.446597882540434
      ],
      [
        "hundred",
        -9.446688059073079
      ],
      [
        "gold",
        -9.44671882097373
      ],
      [
        "thousand",
        -9.44707686372946
      ],
      [
        "press",
        -9.447178364749226
      ],
      [
        "range",
        -9.447522806247225
      ],
      [
        "migrant",
        -9.45043493299415
      ],
      [
        "clinton",
        -9.450448035158146
      ],
      [
        "ought",
        -9.450503788878834
      ],
      [
        "198",
        -9.451638010037053
      ],
      [
        "197",
        -9.452506943288927
      ],
      [
        "mexic",
        -9.454478324706074
      ],
      [
        "mortgage",
        -9.458008910358851
      ],
      [
        "student",
        -9.458009273060643
      ],
      [
        "diplomatic",
        -9.458062781725658
      ],
      [
        "whole",
        -9.458770846997373
      ],
      [
        "alliance",
        -9.458942791252785
      ],
      [
        "pent",
        -9.460290193478833
      ],
      [
        "electric",
        -9.461907673173627
      ],
      [
        "thought",
        -9.464631866124051
      ],
      [
        "willing",
        -9.468700955354798
      ],
      [
        "vast",
        -9.469545397426081
      ],
      [
        "poore",
        -9.471706194810947
      ],
      [
        "police",
        -9.472798162903171
      ],
      [
        "opinion",
        -9.47330568522655
      ],
      [
        "bill",
        -9.475036326922705
      ],
      [
        "improv",
        -9.477032606043323
      ],
      [
        "commercial",
        -9.477137118306828
      ],
      [
        "trouble",
        -9.477498970067401
      ],
      [
        "70",
        -9.47921102328401
      ],
      [
        "plant",
        -9.479267967181483
      ],
      [
        "dec",
        -9.481659224264217
      ],
      [
        "precise",
        -9.48198395224782
      ],
      [
        "nce",
        -9.482737884432414
      ],
      [
        "efficienc",
        -9.483803524510613
      ],
      [
        "welfar",
        -9.484972311881084
      ],
      [
        "type",
        -9.48497932658687
      ],
      [
        "macroeconomic",
        -9.485700448326408
      ],
      [
        "membership",
        -9.485822265049325
      ],
      [
        "resolve",
        -9.487056352126066
      ],
      [
        "partners",
        -9.488403276386038
      ],
      [
        "subject",
        -9.488719111881178
      ],
      [
        "speech",
        -9.488839871503618
      ],
      [
        "divide",
        -9.489105445281814
      ],
      [
        "purchase",
        -9.489422389150032
      ],
      [
        "launch",
        -9.49033175308698
      ],
      [
        "pension",
        -9.490971008341297
      ],
      [
        "inter",
        -9.493740291788363
      ],
      [
        "stage",
        -9.494809392528163
      ],
      [
        "double",
        -9.495570818199075
      ],
      [
        "€",
        -9.496698404858655
      ],
      [
        "tension",
        -9.500604677305235
      ],
      [
        "trigger",
        -9.5006558881079
      ],
      [
        "migration",
        -9.503875916645157
      ],
      [
        "engineer",
        -9.504310768031894
      ],
      [
        "democrat",
        -9.50451872794291
      ],
      [
        "collective",
        -9.50514999580277
      ],
      [
        "earlie",
        -9.50882423668713
      ],
      [
        "jing",
        -9.508917626801276
      ],
      [
        "populist",
        -9.509121769388923
      ],
      [
        "your",
        -9.50918828288075
      ],
      [
        "giving",
        -9.512258352961155
      ],
      [
        "whatever",
        -9.51232888819165
      ],
      [
        "imbalance",
        -9.512730288602725
      ],
      [
        "continent",
        -9.51428702067792
      ],
      [
        "2000",
        -9.515952209630985
      ],
      [
        "pattern",
        -9.516619357397396
      ],
      [
        "danger",
        -9.517286717678953
      ],
      [
        "medica",
        -9.518510482433989
      ],
      [
        "understanding",
        -9.520429927208816
      ],
      [
        "heart",
        -9.521014262331178
      ],
      [
        "14",
        -9.521219825360358
      ],
      [
        "charge",
        -9.521833877734448
      ],
      [
        "round",
        -9.522997167613166
      ],
      [
        "vi",
        -9.52314371216588
      ],
      [
        "coalition",
        -9.524701191536428
      ],
      [
        "ill",
        -9.524926579267145
      ],
      [
        "field",
        -9.52503949014379
      ],
      [
        "farmer",
        -9.52592157635016
      ],
      [
        "legitima",
        -9.528275209566278
      ],
      [
        "enormous",
        -9.528767146844348
      ],
      [
        "bilateral",
        -9.528949745660896
      ],
      [
        "supposed",
        -9.530042516930903
      ],
      [
        "exten",
        -9.53096560680682
      ],
      [
        "easi",
        -9.533621831563305
      ],
      [
        "define",
        -9.533965738129192
      ],
      [
        "mass",
        -9.53434734460295
      ],
      [
        "space",
        -9.534418668639969
      ],
      [
        "constructi",
        -9.534899270525951
      ],
      [
        "refore",
        -9.535681392351577
      ],
      [
        "reject",
        -9.536878083296106
      ],
      [
        "foundation",
        -9.537819700369274
      ],
      [
        "adjust",
        -9.539242244257673
      ],
      [
        "fossil",
        -9.541060532661888
      ],
      [
        "legislati",
        -9.541060593268835
      ],
      [
        "apparent",
        -9.541075233263175
      ],
      [
        "easing",
        -9.541324763605676
      ],
      [
        "demonstrate",
        -9.541969040103819
      ],
      [
        "constitution",
        -9.542821925067045
      ],
      [
        "transform",
        -9.543251332560093
      ],
      [
        "productive",
        -9.545581567104552
      ],
      [
        "describe",
        -9.546407565290489
      ],
      [
        "exit",
        -9.546773434885107
      ],
      [
        "mistake",
        -9.547302597913916
      ],
      [
        "chang",
        -9.54836733625508
      ],
      [
        "afford",
        -9.548712860837485
      ],
      [
        "universal",
        -9.553508739272694
      ],
      [
        "task",
        -9.554455017691955
      ],
      [
        "scientific",
        -9.557692833458791
      ],
      [
        "buil",
        -9.559846501254691
      ],
      [
        "car",
        -9.56057307320232
      ],
      [
        "vulnerab",
        -9.561870391817283
      ],
      [
        "argentin",
        -9.562232402280518
      ],
      [
        "abandon",
        -9.566238865117827
      ],
      [
        "implie",
        -9.566392503934676
      ],
      [
        "possibilit",
        -9.566489540498218
      ],
      [
        "conduct",
        -9.567827129989166
      ],
      [
        "typical",
        -9.57035153135407
      ],
      [
        "referendum",
        -9.570368921060341
      ],
      [
        "brother",
        -9.570654228190236
      ],
      [
        "xi",
        -9.571131371088743
      ],
      [
        "ending",
        -9.572069039873991
      ],
      [
        "resolution",
        -9.572150533665468
      ],
      [
        "nov",
        -9.573029761900898
      ],
      [
        "18",
        -9.573910953883447
      ],
      [
        "material",
        -9.574572743306717
      ],
      [
        "iranian",
        -9.574789275349039
      ],
      [
        "saudi",
        -9.575339223368834
      ],
      [
        "sides",
        -9.575468132823305
      ],
      [
        "agricultural",
        -9.576430671668223
      ],
      [
        "clean",
        -9.576817307466555
      ],
      [
        "holding",
        -9.57840746351026
      ],
      [
        "context",
        -9.578927838887797
      ],
      [
        "secure",
        -9.581728691771294
      ],
      [
        "plann",
        -9.582358026894564
      ],
      [
        "scientist",
        -9.583167736612587
      ],
      [
        "contribution",
        -9.583221566462047
      ],
      [
        "fast",
        -9.584635001978196
      ],
      [
        "slowdown",
        -9.588298491851685
      ],
      [
        "drop",
        -9.590402238717196
      ],
      [
        "gradual",
        -9.591811247024609
      ],
      [
        "constitutional",
        -9.594389877466774
      ],
      [
        "lose",
        -9.595677864476368
      ],
      [
        "comprehensive",
        -9.596161783669425
      ],
      [
        "initial",
        -9.596268674699287
      ],
      [
        "ried",
        -9.596268992788293
      ],
      [
        "pass",
        -9.597213608805765
      ],
      [
        "fire",
        -9.598937286396108
      ],
      [
        "dynamic",
        -9.601169805059762
      ],
      [
        "count",
        -9.604599484220618
      ],
      [
        "volatil",
        -9.604911874045099
      ],
      [
        "compromise",
        -9.604986612092803
      ],
      [
        "ship",
        -9.60624954148787
      ],
      [
        "committe",
        -9.607586255506954
      ],
      [
        "defeat",
        -9.609318829484085
      ],
      [
        "studie",
        -9.609329736417894
      ],
      [
        "etting",
        -9.609836675093234
      ],
      [
        "improvement",
        -9.611035167140555
      ],
      [
        "solve",
        -9.611289143922
      ],
      [
        "2005",
        -9.613017032672122
      ],
      [
        "treasur",
        -9.6137437035817
      ],
      [
        "settlement",
        -9.617761422452686
      ],
      [
        "went",
        -9.617985524005991
      ],
      [
        "correct",
        -9.622557772850405
      ],
      [
        "restructuring",
        -9.622650628104282
      ],
      [
        "insist",
        -9.623838084968153
      ],
      [
        "carry",
        -9.624018233950167
      ],
      [
        "urgent",
        -9.625063790919684
      ],
      [
        "reveal",
        -9.626166345301158
      ],
      [
        "rely",
        -9.62649609691532
      ],
      [
        "mar",
        -9.626978518105439
      ],
      [
        "unprecedented",
        -9.627137917760457
      ],
      [
        "representative",
        -9.627155511242746
      ],
      [
        "truth",
        -9.628100514365682
      ],
      [
        "sovereignt",
        -9.62836338082763
      ],
      [
        "capita",
        -9.629936587888519
      ],
      [
        "choose",
        -9.631458796580494
      ],
      [
        "excess",
        -9.631529771089262
      ],
      [
        "scenario",
        -9.631639437534574
      ],
      [
        "george",
        -9.631639649860116
      ],
      [
        "dominate",
        -9.632869457544757
      ],
      [
        "agricultur",
        -9.634228135280395
      ],
      [
        "achiev",
        -9.635787882827302
      ],
      [
        "multilateral",
        -9.636603147235414
      ],
      [
        "immigrati",
        -9.637022886140254
      ],
      [
        "cycle",
        -9.637023856895144
      ],
      [
        "transformation",
        -9.637133123432996
      ],
      [
        "southern",
        -9.639480252152147
      ],
      [
        "ban",
        -9.640360113206956
      ],
      [
        "list",
        -9.640564153135966
      ],
      [
        "permanent",
        -9.64092112861524
      ],
      [
        "cash",
        -9.641078547224748
      ],
      [
        "los",
        -9.642502018276769
      ],
      [
        "mov",
        -9.643177213625943
      ],
      [
        "republic",
        -9.643304694118148
      ],
      [
        "message",
        -9.645818928656924
      ],
      [
        "bear",
        -9.646829201384959
      ],
      [
        "leav",
        -9.647024661052523
      ],
      [
        "blood",
        -9.649863195449566
      ],
      [
        "defend",
        -9.653213973409162
      ],
      [
        "associate",
        -9.654471440554586
      ],
      [
        "ensur",
        -9.655052064177275
      ],
      [
        "mutual",
        -9.656947262754164
      ],
      [
        "wall",
        -9.657664784734934
      ],
      [
        "shape",
        -9.657687070653152
      ],
      [
        "purpose",
        -9.65891432073704
      ],
      [
        "story",
        -9.659847117967395
      ],
      [
        "planet",
        -9.660114232504633
      ],
      [
        "victim",
        -9.660153362704385
      ],
      [
        "march",
        -9.660499650156517
      ],
      [
        "speak",
        -9.66175810977581
      ],
      [
        "active",
        -9.662483325194845
      ],
      [
        "territor",
        -9.663727670367141
      ],
      [
        "cit",
        -9.663744207872565
      ],
      [
        "belief",
        -9.668425253030623
      ],
      [
        "conclude",
        -9.669673684609553
      ],
      [
        "proper",
        -9.671212016782025
      ],
      [
        "cope",
        -9.671979304165571
      ],
      [
        "1970",
        -9.673448450827873
      ],
      [
        "intellectual",
        -9.677837099430448
      ],
      [
        "degree",
        -9.677840441502866
      ],
      [
        "mind",
        -9.677857220969864
      ],
      [
        "80",
        -9.67933740514567
      ],
      [
        "har",
        -9.679553019064514
      ],
      [
        "blame",
        -9.681678384890699
      ],
      [
        "enjoy",
        -9.68258214892355
      ],
      [
        "ural",
        -9.68355333299208
      ],
      [
        "2006",
        -9.684714693366537
      ],
      [
        "fell",
        -9.684872711053526
      ],
      [
        "addition",
        -9.685170564449528
      ],
      [
        "combine",
        -9.686187020283908
      ],
      [
        "person",
        -9.6868152284564
      ],
      [
        "fix",
        -9.687005582551365
      ],
      [
        "various",
        -9.687348143996356
      ],
      [
        "ignore",
        -9.687441337268396
      ],
      [
        "imagine",
        -9.687521585640905
      ],
      [
        "destroy",
        -9.692129043761142
      ],
      [
        "block",
        -9.693383317220169
      ],
      [
        "restore",
        -9.694688937745543
      ],
      [
        "erkel",
        -9.69492127254846
      ],
      [
        "pol",
        -9.6959615546011
      ],
      [
        "surprising",
        -9.696024029600533
      ],
      [
        "spring",
        -9.696996201746582
      ],
      [
        "committee",
        -9.701475274070406
      ],
      [
        "barrier",
        -9.701764533864031
      ],
      [
        "soft",
        -9.701882523172284
      ],
      [
        "weakness",
        -9.702623465726116
      ],
      [
        "declare",
        -9.703276779127659
      ],
      [
        "quite",
        -9.703483199054741
      ],
      [
        "tion",
        -9.706152106020816
      ],
      [
        "bailout",
        -9.70715986586227
      ],
      [
        "polluti",
        -9.710211689462914
      ],
      [
        "attract",
        -9.711430894531553
      ],
      [
        "language",
        -9.711493930718051
      ],
      [
        "leverage",
        -9.711947105973259
      ],
      [
        "announce",
        -9.712657389168086
      ],
      [
        "island",
        -9.715099640775428
      ],
      [
        "requirement",
        -9.715645362638645
      ],
      [
        "host",
        -9.716027048635368
      ],
      [
        "islam",
        -9.716139809960119
      ],
      [
        "13",
        -9.716541183268976
      ],
      [
        "consistent",
        -9.719311834804342
      ],
      [
        "vice",
        -9.719377971057634
      ],
      [
        "portug",
        -9.721335657248224
      ],
      [
        "immigrant",
        -9.721371408400106
      ],
      [
        "trial",
        -9.72142822044718
      ],
      [
        "skills",
        -9.7220584159489
      ],
      [
        "sell",
        -9.722535697082865
      ],
      [
        "gone",
        -9.723600081129678
      ],
      [
        "appropriate",
        -9.724304551720628
      ],
      [
        "strength",
        -9.726161351889532
      ],
      [
        "virtual",
        -9.726272472500302
      ],
      [
        "expenditure",
        -9.726272478317396
      ],
      [
        "corporation",
        -9.726282609073364
      ],
      [
        "russel",
        -9.726384853935368
      ],
      [
        "appeal",
        -9.72641516731118
      ],
      [
        "gre",
        -9.726997455230865
      ],
      [
        "wors",
        -9.727086662465297
      ],
      [
        "ch",
        -9.72897819182381
      ],
      [
        "chain",
        -9.73013193066964
      ],
      [
        "genetic",
        -9.731113020032447
      ],
      [
        "transport",
        -9.731261446072448
      ],
      [
        "unning",
        -9.734637244692635
      ],
      [
        "identit",
        -9.736489483808356
      ],
      [
        "broade",
        -9.737325348459773
      ],
      [
        "syrian",
        -9.73779195352861
      ],
      [
        "enhance",
        -9.739699743229867
      ],
      [
        "room",
        -9.741000987978337
      ],
      [
        "peripher",
        -9.7412727449498
      ],
      [
        "smalle",
        -9.742741505946485
      ],
      [
        "establishment",
        -9.743718552503509
      ],
      [
        "cutt",
        -9.744075627229599
      ],
      [
        "welcome",
        -9.746013276931802
      ],
      [
        "16",
        -9.746013333575188
      ],
      [
        "formal",
        -9.746137563636827
      ],
      [
        "executive",
        -9.74634093770407
      ],
      [
        "chile",
        -9.748410155843235
      ],
      [
        "minorit",
        -9.748961877950954
      ],
      [
        "takes",
        -9.74909847300343
      ],
      [
        "manag",
        -9.749576743519633
      ],
      [
        "northern",
        -9.75022274557912
      ],
      [
        "instabilit",
        -9.750552716564695
      ],
      [
        "civilian",
        -9.751491522959872
      ],
      [
        "technical",
        -9.75152548733427
      ],
      [
        "moderate",
        -9.754142362818362
      ],
      [
        "remarkabl",
        -9.754190979493469
      ],
      [
        "stay",
        -9.754268741727124
      ],
      [
        "criminal",
        -9.755258445149725
      ],
      [
        "cam",
        -9.756500903109947
      ],
      [
        "taxpayer",
        -9.756528297371226
      ],
      [
        "genuine",
        -9.761629805912763
      ],
      [
        "aggressive",
        -9.761630122680018
      ],
      [
        "pai",
        -9.765398047054338
      ],
      [
        "fortunate",
        -9.765886140640163
      ],
      [
        "surprise",
        -9.766784274211217
      ],
      [
        "prevail",
        -9.766784371622112
      ],
      [
        "dream",
        -9.766796005334403
      ],
      [
        "mir",
        -9.769248041179289
      ],
      [
        "repeated",
        -9.770654071806335
      ],
      [
        "gaza",
        -9.77087535791091
      ],
      [
        "lates",
        -9.771783073851873
      ],
      [
        "computer",
        -9.77179236316293
      ],
      [
        "circumstance",
        -9.771966111545678
      ],
      [
        "micro",
        -9.773152592705689
      ],
      [
        "rhetoric",
        -9.773921796371166
      ],
      [
        "helping",
        -9.776262476352617
      ],
      [
        "drugs",
        -9.776376748192414
      ],
      [
        "promot",
        -9.777654380050773
      ],
      [
        "actor",
        -9.777760467776453
      ],
      [
        "emerge",
        -9.780029835762559
      ],
      [
        "caus",
        -9.780125949913874
      ],
      [
        "occur",
        -9.782027856216056
      ],
      [
        "adapt",
        -9.782048779052221
      ],
      [
        "integrate",
        -9.78382183812533
      ],
      [
        "embrace",
        -9.784249912025356
      ],
      [
        "team",
        -9.78454754727108
      ],
      [
        "signal",
        -9.786523332518769
      ],
      [
        "implication",
        -9.78767447929564
      ],
      [
        "army",
        -9.787932034613565
      ],
      [
        "narrow",
        -9.788791041880806
      ],
      [
        "nationalist",
        -9.794080183770685
      ],
      [
        "lies",
        -9.794350231912789
      ],
      [
        "eight",
        -9.794817429375737
      ],
      [
        "pace",
        -9.796073633105902
      ],
      [
        "taiwan",
        -9.798284474261289
      ],
      [
        "element",
        -9.798290042260225
      ],
      [
        "desire",
        -9.799845765261347
      ],
      [
        "korean",
        -9.800317982988172
      ],
      [
        "ification",
        -9.803776082109088
      ],
      [
        "diploma",
        -9.803996469125565
      ],
      [
        "delay",
        -9.804144726173522
      ],
      [
        "peaceful",
        -9.80422754513383
      ],
      [
        "deepen",
        -9.805125047171732
      ],
      [
        "mandate",
        -9.805150938368019
      ],
      [
        "practical",
        -9.806129965231868
      ],
      [
        "channel",
        -9.8090068324225
      ],
      [
        "italian",
        -9.80900704138559
      ],
      [
        "ordinar",
        -9.809157882949457
      ],
      [
        "islamist",
        -9.809182380104891
      ],
      [
        "easie",
        -9.809821884328787
      ],
      [
        "subsid",
        -9.810166227277533
      ],
      [
        "facilit",
        -9.811742321959017
      ],
      [
        "earth",
        -9.813144710575834
      ],
      [
        "critic",
        -9.813923369907908
      ],
      [
        "perceive",
        -9.814412229160876
      ],
      [
        "arrangement",
        -9.814466227966932
      ],
      [
        "chief",
        -9.818692876391829
      ],
      [
        "guide",
        -9.819803437628924
      ],
      [
        "troop",
        -9.819846277079115
      ],
      [
        "carrie",
        -9.819958018528386
      ],
      [
        "renewable",
        -9.820568167411086
      ],
      [
        "ideal",
        -9.820570185648927
      ],
      [
        "track",
        -9.821253842525422
      ],
      [
        "earn",
        -9.822222754874776
      ],
      [
        "miss",
        -9.82227519808699
      ],
      [
        "review",
        -9.822464237107795
      ],
      [
        "wave",
        -9.82384788689263
      ],
      [
        "obligation",
        -9.825319553763492
      ],
      [
        "oppose",
        -9.825510263677199
      ],
      [
        "mention",
        -9.82660631643527
      ],
      [
        "instrument",
        -9.826762693332618
      ],
      [
        "credi",
        -9.826966906655567
      ],
      [
        "voice",
        -9.827634163318326
      ],
      [
        "combination",
        -9.83087601405488
      ],
      [
        "summer",
        -9.830917295827703
      ],
      [
        "twenty",
        -9.831125171807761
      ],
      [
        "wait",
        -9.83426667117882
      ],
      [
        "whom",
        -9.834322810905658
      ],
      [
        "perform",
        -9.835263074286296
      ],
      [
        "arms",
        -9.835321850523773
      ],
      [
        "aware",
        -9.8364443099014
      ],
      [
        "ium",
        -9.83751224510565
      ],
      [
        "negotiate",
        -9.837868436362898
      ],
      [
        "finding",
        -9.837872575355917
      ],
      [
        "reland",
        -9.838304650392267
      ],
      [
        "2004",
        -9.839785398060368
      ],
      [
        "aught",
        -9.840951856847525
      ],
      [
        "introduce",
        -9.841148981439627
      ],
      [
        "convince",
        -9.841255081255165
      ],
      [
        "ethnic",
        -9.841704340955687
      ],
      [
        "strike",
        -9.841887889000763
      ],
      [
        "percentage",
        -9.84191206352255
      ],
      [
        "presidenc",
        -9.842045026262198
      ],
      [
        "provision",
        -9.842130752962031
      ],
      [
        "package",
        -9.843705383555719
      ],
      [
        "17",
        -9.843786724918898
      ],
      [
        "solida",
        -9.84443084701978
      ],
      [
        "quantitative",
        -9.84747632899459
      ],
      [
        "intelligen",
        -9.84818862996049
      ],
      [
        "acknowledge",
        -9.849094663018963
      ],
      [
        "analys",
        -9.850011224866456
      ],
      [
        "credibl",
        -9.850148328855
      ],
      [
        "watch",
        -9.852000703720167
      ],
      [
        "search",
        -9.8528911567482
      ],
      [
        "grant",
        -9.853066251055964
      ],
      [
        "tic",
        -9.85307775877894
      ],
      [
        "opponent",
        -9.85309094591615
      ],
      [
        "driv",
        -9.853215882687671
      ],
      [
        "player",
        -9.853964278834834
      ],
      [
        "statement",
        -9.854116475122225
      ],
      [
        "intend",
        -9.858906651030269
      ],
      [
        "janu",
        -9.859036401322529
      ],
      [
        "geopolitical",
        -9.859249525361228
      ],
      [
        "john",
        -9.860666338177154
      ],
      [
        "forecast",
        -9.862957645323473
      ],
      [
        "rity",
        -9.864658951610302
      ],
      [
        "greenhouse",
        -9.8646941389554
      ],
      [
        "constraint",
        -9.865607992894239
      ],
      [
        "hear",
        -9.86658877868543
      ],
      [
        "unsustainabl",
        -9.86821967646139
      ],
      [
        "ruling",
        -9.869652746113488
      ],
      [
        "vaccine",
        -9.870136766494745
      ],
      [
        "indicate",
        -9.870209718869308
      ],
      [
        "participati",
        -9.870859140898162
      ],
      [
        "overcome",
        -9.872315795791877
      ],
      [
        "90",
        -9.874913729384543
      ],
      [
        "distribution",
        -9.87574243071015
      ],
      [
        "sudden",
        -9.875945430836918
      ],
      [
        "exact",
        -9.87610577466993
      ],
      [
        "dom",
        -9.876832579493643
      ],
      [
        "highlight",
        -9.877047058023024
      ],
      [
        "discover",
        -9.881394675784296
      ],
      [
        "mission",
        -9.881925892143219
      ],
      [
        "pacific",
        -9.882066205670359
      ],
      [
        "assad",
        -9.882551128279868
      ],
      [
        "replace",
        -9.883992697252737
      ],
      [
        "battle",
        -9.884206711049604
      ],
      [
        "reported",
        -9.884229925259582
      ],
      [
        "deposit",
        -9.885048570008077
      ],
      [
        "version",
        -9.885648079407027
      ],
      [
        "eliminate",
        -9.886068664274491
      ],
      [
        "professional",
        -9.888714966962889
      ],
      [
        "weight",
        -9.888718021499525
      ],
      [
        "setting",
        -9.891595497262163
      ],
      [
        "donor",
        -9.893038439873058
      ],
      [
        "white",
        -9.893328863749618
      ],
      [
        "robust",
        -9.893339206146345
      ],
      [
        "judge",
        -9.893442427079634
      ],
      [
        "training",
        -9.895289631207838
      ],
      [
        "determine",
        -9.895534525110655
      ],
      [
        "decided",
        -9.897773339523951
      ],
      [
        "producer",
        -9.898935106497134
      ],
      [
        "transaction",
        -9.899360195360114
      ],
      [
        "harm",
        -9.899711557450333
      ],
      [
        "cheap",
        -9.900719221947856
      ],
      [
        "careful",
        -9.900805677163822
      ],
      [
        "express",
        -9.90128158819156
      ],
      [
        "kill",
        -9.901673383303656
      ],
      [
        "indonesia",
        -9.903755935935923
      ],
      [
        "medicine",
        -9.905029151299134
      ],
      [
        "sentiment",
        -9.905130860325645
      ],
      [
        "unique",
        -9.905132002478501
      ],
      [
        "partner",
        -9.90539784076312
      ],
      [
        "farm",
        -9.907389479689265
      ],
      [
        "temporar",
        -9.91092856495328
      ],
      [
        "concept",
        -9.91096977620609
      ],
      [
        "twentie",
        -9.911091106263937
      ],
      [
        "ocean",
        -9.911097636883945
      ],
      [
        "applie",
        -9.91114827154081
      ],
      [
        "paper",
        -9.911271131431544
      ],
      [
        "entrepreneurs",
        -9.912734909108277
      ],
      [
        "arabia",
        -9.912885291418052
      ],
      [
        "pen",
        -9.913735831392303
      ],
      [
        "joint",
        -9.915126369527789
      ],
      [
        "ur",
        -9.915384742699477
      ],
      [
        "friend",
        -9.915471962333923
      ],
      [
        "declin",
        -9.916030738742627
      ],
      [
        "renew",
        -9.916156287004188
      ],
      [
        "vietnam",
        -9.91706619823156
      ],
      [
        "mix",
        -9.917089903575006
      ],
      [
        "stands",
        -9.917214382694768
      ],
      [
        "inclusive",
        -9.917226602451496
      ],
      [
        "image",
        -9.918685500878848
      ],
      [
        "method",
        -9.918951971834325
      ],
      [
        "release",
        -9.920594615623362
      ],
      [
        "violent",
        -9.921903461998063
      ],
      [
        "gav",
        -9.921949759732101
      ],
      [
        "experiment",
        -9.923090172527868
      ],
      [
        "reverse",
        -9.923406451460364
      ],
      [
        "multi",
        -9.923552649014797
      ],
      [
        "advocate",
        -9.923799087098793
      ],
      [
        "expensive",
        -9.924233252291481
      ],
      [
        "realize",
        -9.924454518516903
      ],
      [
        "194",
        -9.926485761281578
      ],
      [
        "prepared",
        -9.926614482288356
      ],
      [
        "tru",
        -9.92879307264516
      ],
      [
        "index",
        -9.929012234993017
      ],
      [
        "egyptian",
        -9.929269627068326
      ],
      [
        "equivalent",
        -9.92929742050278
      ],
      [
        "worrie",
        -9.929557634922386
      ],
      [
        "pursu",
        -9.929712883109689
      ],
      [
        "monitor",
        -9.935249153143243
      ],
      [
        "electoral",
        -9.935262553259276
      ],
      [
        "lift",
        -9.935273176316615
      ],
      [
        "speed",
        -9.935489906792423
      ],
      [
        "heavi",
        -9.936716256484083
      ],
      [
        "style",
        -9.936827866544302
      ],
      [
        "adequate",
        -9.937051853063709
      ],
      [
        "decide",
        -9.937565304770366
      ],
      [
        "tell",
        -9.939950225674378
      ],
      [
        "bottom",
        -9.941383606079569
      ],
      [
        "animal",
        -9.941408363358043
      ],
      [
        "hands",
        -9.942391035450907
      ],
      [
        "greed",
        -9.946834080501942
      ],
      [
        "hood",
        -9.94732791636017
      ],
      [
        "discuss",
        -9.947463837562626
      ],
      [
        "dialogue",
        -9.947556150713918
      ],
      [
        "angel",
        -9.947829337063592
      ],
      [
        "born",
        -9.948877208779624
      ],
      [
        "wherea",
        -9.949134156706346
      ],
      [
        "leban",
        -9.95383460175421
      ],
      [
        "apply",
        -9.9562009295044
      ],
      [
        "bound",
        -9.958639113562835
      ],
      [
        "fourth",
        -9.959748321995228
      ],
      [
        "co2",
        -9.960204700024146
      ],
      [
        "division",
        -9.960386315133452
      ],
      [
        "stress",
        -9.961060637274759
      ],
      [
        "absen",
        -9.962253628509604
      ],
      [
        "imed",
        -9.963312570485826
      ],
      [
        "crop",
        -9.9648055426971
      ],
      [
        "sort",
        -9.965221891641697
      ],
      [
        "rose",
        -9.965347948123444
      ],
      [
        "pledge",
        -9.96602009808661
      ],
      [
        "senior",
        -9.966311369658255
      ],
      [
        "chancell",
        -9.966323166165054
      ],
      [
        "profound",
        -9.966763840788062
      ],
      [
        "useful",
        -9.967148302966034
      ],
      [
        "consideration",
        -9.967172668654953
      ],
      [
        "operate",
        -9.970478326736085
      ],
      [
        "feed",
        -9.970835159889866
      ],
      [
        "aggregate",
        -9.972635739299406
      ],
      [
        "decisive",
        -9.972637656834486
      ],
      [
        "hiv",
        -9.972646269550157
      ],
      [
        "del",
        -9.972696745263868
      ],
      [
        "cyber",
        -9.972714205245776
      ],
      [
        "destructi",
        -9.972885117550188
      ],
      [
        "norm",
        -9.973008624762345
      ],
      [
        "religion",
        -9.973057758131088
      ],
      [
        "employee",
        -9.973736883541726
      ],
      [
        "camero",
        -9.97574910688908
      ],
      [
        "killing",
        -9.975860228814525
      ],
      [
        "match",
        -9.976216107171613
      ],
      [
        "securiti",
        -9.977857946662336
      ],
      [
        "survive",
        -9.978468488280377
      ],
      [
        "fulfill",
        -9.978490685039697
      ],
      [
        "expose",
        -9.978763245652516
      ],
      [
        "physical",
        -9.97950864601286
      ],
      [
        "196",
        -9.980643046678685
      ],
      [
        "19",
        -9.981446603303123
      ],
      [
        "ex",
        -9.98177083323927
      ],
      [
        "eeper",
        -9.983940506464716
      ],
      [
        "obstacle",
        -9.985415421502013
      ],
      [
        "300",
        -9.98571342752571
      ],
      [
        "aging",
        -9.986011069569997
      ],
      [
        "legitimate",
        -9.986154254021596
      ],
      [
        "capabl",
        -9.98691367724025
      ],
      [
        "ng",
        -9.98811197603889
      ],
      [
        "berl",
        -9.988889064594954
      ],
      [
        "gun",
        -9.990113390516257
      ],
      [
        "identify",
        -9.991867036761713
      ],
      [
        "authoritarian",
        -9.99188385957547
      ],
      [
        "foster",
        -9.991986487416701
      ],
      [
        "wind",
        -9.992446463500336
      ],
      [
        "digital",
        -9.992855202271755
      ],
      [
        "lines",
        -9.993668800336694
      ],
      [
        "determined",
        -9.995715549975554
      ],
      [
        "laws",
        -9.996401900790145
      ],
      [
        "inadequate",
        -9.996459561776739
      ],
      [
        "upon",
        -9.997325707577748
      ],
      [
        "wonder",
        -9.998233646913887
      ],
      [
        "ambition",
        -9.998326411181395
      ],
      [
        "perspective",
        -9.998360540915868
      ],
      [
        "innovative",
        -9.998382722662601
      ],
      [
        "territorial",
        -9.998394888647125
      ],
      [
        "attractive",
        -9.998512030090776
      ],
      [
        "heavy",
        -9.998514202614636
      ],
      [
        "customer",
        -9.998997617278736
      ],
      [
        "educate",
        -9.999202861350888
      ],
      [
        "survey",
        -9.999520411149096
      ],
      [
        "counterpart",
        -10.000462240418486
      ],
      [
        "produc",
        -10.000685374738568
      ],
      [
        "liabilit",
        -10.002310660149366
      ],
      [
        "dependent",
        -10.003011652380538
      ],
      [
        "exceed",
        -10.003609357220515
      ],
      [
        "ark",
        -10.003869513601924
      ],
      [
        "refuse",
        -10.004012200513248
      ],
      [
        "encouraging",
        -10.00489648879913
      ],
      [
        "scheme",
        -10.00490359328207
      ],
      [
        "forest",
        -10.006069149508082
      ],
      [
        "abuse",
        -10.007629742862658
      ],
      [
        "borrower",
        -10.009498284427771
      ],
      [
        "train",
        -10.010475355105982
      ],
      [
        "libya",
        -10.011000400388642
      ],
      [
        "flood",
        -10.011475536460829
      ],
      [
        "retain",
        -10.01155403394371
      ],
      [
        "shareholder",
        -10.011719934194073
      ],
      [
        "dead",
        -10.012043652072842
      ],
      [
        "45",
        -10.012304581135716
      ],
      [
        "peak",
        -10.013283940738994
      ],
      [
        "famous",
        -10.014213856800014
      ],
      [
        "systemic",
        -10.014287722684266
      ],
      [
        "facilitate",
        -10.015729414682788
      ],
      [
        "octo",
        -10.017606228448413
      ],
      [
        "cell",
        -10.01791484401802
      ],
      [
        "explanation",
        -10.018100239780516
      ],
      [
        "assembl",
        -10.018271797357865
      ],
      [
        "parent",
        -10.018275937921473
      ],
      [
        "exception",
        -10.019138366363325
      ],
      [
        "pose",
        -10.01960517151284
      ],
      [
        "warning",
        -10.019757603655572
      ],
      [
        "feature",
        -10.021190573401858
      ],
      [
        "transparen",
        -10.022485494933695
      ],
      [
        "worry",
        -10.024078960197102
      ],
      [
        "bar",
        -10.024266431220342
      ],
      [
        "secular",
        -10.024719571216306
      ],
      [
        "imperative",
        -10.024764704387295
      ],
      [
        "frequent",
        -10.02725562613343
      ],
      [
        "reinforce",
        -10.028685330680453
      ],
      [
        "speci",
        -10.028814473692766
      ],
      [
        "relevan",
        -10.028951444800622
      ],
      [
        "variet",
        -10.029447689386442
      ],
      [
        "tough",
        -10.03010328653684
      ],
      [
        "fish",
        -10.03122106043489
      ],
      [
        "singapore",
        -10.031476175708006
      ],
      [
        "sight",
        -10.031745560236851
      ],
      [
        "bric",
        -10.03192103254297
      ],
      [
        "kyo",
        -10.032692606263687
      ],
      [
        "observer",
        -10.033834364956608
      ],
      [
        "user",
        -10.03580172839931
      ],
      [
        "ozy",
        -10.03599415711968
      ],
      [
        "rating",
        -10.03734387216062
      ],
      [
        "orient",
        -10.03755666535843
      ],
      [
        "humanitarian",
        -10.038234545161405
      ],
      [
        "supporter",
        -10.039184314942482
      ],
      [
        "function",
        -10.040106375439215
      ],
      [
        "recogni",
        -10.042469748556325
      ],
      [
        "jul",
        -10.042511621126135
      ],
      [
        "ter",
        -10.043295781459598
      ],
      [
        "assessment",
        -10.043738053890342
      ],
      [
        "stance",
        -10.044999867791146
      ],
      [
        "attitude",
        -10.045101279447945
      ],
      [
        "criticism",
        -10.045358532275678
      ],
      [
        "accompanie",
        -10.045449970805489
      ],
      [
        "ebol",
        -10.046318410642666
      ],
      [
        "manager",
        -10.046424487225071
      ],
      [
        "mor",
        -10.04690163892634
      ],
      [
        "ethical",
        -10.047407956005427
      ],
      [
        "hail",
        -10.047543059125235
      ],
      [
        "stagnati",
        -10.051253506198398
      ],
      [
        "combat",
        -10.05183304868185
      ],
      [
        "cyclical",
        -10.051885272069095
      ],
      [
        "depreciation",
        -10.051890988998526
      ],
      [
        "intensive",
        -10.051924518692434
      ],
      [
        "tradition",
        -10.051932337624734
      ],
      [
        "painful",
        -10.051999535046575
      ],
      [
        "rmed",
        -10.054491055556625
      ],
      [
        "diminish",
        -10.054989814280944
      ],
      [
        "reaction",
        -10.055621373272075
      ],
      [
        "fill",
        -10.055638210537797
      ],
      [
        "lum",
        -10.05739185860973
      ],
      [
        "terror",
        -10.057652305040314
      ],
      [
        "failing",
        -10.058614609377887
      ],
      [
        "consolidation",
        -10.058795148260412
      ],
      [
        "detail",
        -10.05882735956462
      ],
      [
        "missile",
        -10.058923612237809
      ],
      [
        "capabilit",
        -10.059018289174743
      ],
      [
        "lender",
        -10.061069099706177
      ],
      [
        "allen",
        -10.061285330963235
      ],
      [
        "devaluation",
        -10.06244049721531
      ],
      [
        "temperature",
        -10.065725895137183
      ],
      [
        "ambitio",
        -10.06576234191372
      ],
      [
        "enem",
        -10.065889253678929
      ],
      [
        "notabl",
        -10.067045224555184
      ],
      [
        "regardless",
        -10.067914698566936
      ],
      [
        "negotiat",
        -10.068019892735357
      ],
      [
        "pact",
        -10.068784470414027
      ],
      [
        "1930",
        -10.073071265981481
      ],
      [
        "phase",
        -10.073913136765572
      ],
      [
        "enhanc",
        -10.0749162231001
      ],
      [
        "ious",
        -10.075139979197894
      ],
      [
        "ber",
        -10.07679469403108
      ],
      [
        "capture",
        -10.076991374209651
      ],
      [
        "accelerate",
        -10.078276624679777
      ],
      [
        "travel",
        -10.078295412397175
      ],
      [
        "constrain",
        -10.078805610906754
      ],
      [
        "component",
        -10.079761192176793
      ],
      [
        "rescue",
        -10.080288776254793
      ],
      [
        "modest",
        -10.080439405817012
      ],
      [
        "burm",
        -10.080528034331245
      ],
      [
        "arrest",
        -10.080615568349092
      ],
      [
        "harde",
        -10.081566876186143
      ],
      [
        "doctor",
        -10.082596119745432
      ],
      [
        "meaning",
        -10.083228310994045
      ],
      [
        "arm",
        -10.085909051228796
      ],
      [
        "generat",
        -10.08603922284267
      ],
      [
        "allie",
        -10.086168827135221
      ],
      [
        "gender",
        -10.086784811734677
      ],
      [
        "subsequent",
        -10.086853276779138
      ],
      [
        "australia",
        -10.086975793529014
      ],
      [
        "desperate",
        -10.088186102700817
      ],
      [
        "shortage",
        -10.08835475824771
      ],
      [
        "youth",
        -10.091780290750428
      ],
      [
        "emphasize",
        -10.091962881537334
      ],
      [
        "exploit",
        -10.093091099700839
      ],
      [
        "holland",
        -10.0939962566802
      ],
      [
        "paul",
        -10.093998524681972
      ],
      [
        "modi",
        -10.09400482780552
      ],
      [
        "check",
        -10.094726217040547
      ],
      [
        "wake",
        -10.094749472670456
      ],
      [
        "undermin",
        -10.096314767986206
      ],
      [
        "afghan",
        -10.097840942042634
      ],
      [
        "soar",
        -10.098063553585298
      ],
      [
        "overwhelming",
        -10.098112912404563
      ],
      [
        "couple",
        -10.098804624188666
      ],
      [
        "displace",
        -10.098853242710256
      ],
      [
        "flaw",
        -10.099701461583898
      ],
      [
        "platform",
        -10.101191271327638
      ],
      [
        "solar",
        -10.10119640883858
      ],
      [
        "surge",
        -10.101506307405533
      ],
      [
        "mark",
        -10.103707093894151
      ],
      [
        "offset",
        -10.104245332945903
      ],
      [
        "camp",
        -10.105648099693022
      ],
      [
        "remember",
        -10.106292094766175
      ],
      [
        "faith",
        -10.108285137955907
      ],
      [
        "august",
        -10.108437300393518
      ],
      [
        "england",
        -10.108441002591679
      ],
      [
        "venezuela",
        -10.108702545524473
      ],
      [
        "supplie",
        -10.11141232385215
      ],
      [
        "bold",
        -10.111889578586403
      ],
      [
        "signed",
        -10.114583679049765
      ],
      [
        "exercise",
        -10.11504846556095
      ],
      [
        "conclusion",
        -10.115739313875022
      ],
      [
        "exporter",
        -10.117049671888125
      ],
      [
        "enforce",
        -10.118130697671987
      ],
      [
        "via",
        -10.120288347549568
      ],
      [
        "communication",
        -10.123102663694288
      ],
      [
        ".&",
        -10.123156540415739
      ],
      [
        "linked",
        -10.12341937725946
      ],
      [
        "sunni",
        -10.123618885790881
      ],
      [
        "bankruptc",
        -10.123748767902306
      ],
      [
        "friends",
        -10.124513684348065
      ],
      [
        "assumption",
        -10.124837856125014
      ],
      [
        "achievement",
        -10.125795836862874
      ],
      [
        "machine",
        -10.128258668355567
      ],
      [
        "enabl",
        -10.129134156865735
      ],
      [
        "researcher",
        -10.130316790646251
      ],
      [
        "vehicle",
        -10.130496374034271
      ],
      [
        "weake",
        -10.130525773401445
      ],
      [
        "discipline",
        -10.13055586914459
      ],
      [
        "ministr",
        -10.130623130448411
      ],
      [
        "disorder",
        -10.131775447830439
      ],
      [
        "refus",
        -10.131883542186106
      ],
      [
        "proportion",
        -10.13266197866228
      ],
      [
        "stopp",
        -10.133543066708633
      ],
      [
        "institute",
        -10.134186856886174
      ],
      [
        "nghai",
        -10.135502178233164
      ],
      [
        "bu",
        -10.135913853571475
      ],
      [
        "erdoğan",
        -10.137959060616287
      ],
      [
        "malaria",
        -10.13796042619911
      ],
      [
        "night",
        -10.137965616881782
      ],
      [
        "department",
        -10.1380241826554
      ],
      [
        "restriction",
        -10.138043739315666
      ],
      [
        "colombia",
        -10.13843166995688
      ],
      [
        "remove",
        -10.140272514239868
      ],
      [
        "extra",
        -10.142449109482172
      ],
      [
        "rival",
        -10.14522942539486
      ],
      [
        "regular",
        -10.145424994099745
      ],
      [
        "fifth",
        -10.145756563461582
      ],
      [
        "rank",
        -10.147307486052249
      ],
      [
        "coordinati",
        -10.148448819348857
      ],
      [
        "lay",
        -10.149651968477542
      ],
      [
        "obel",
        -10.151208547493239
      ],
      [
        "tighten",
        -10.151733653635965
      ],
      [
        "forum",
        -10.152052916286546
      ],
      [
        "murder",
        -10.152074370782746
      ],
      [
        "narrative",
        -10.153053903922928
      ],
      [
        "mubarak",
        -10.15305501739677
      ],
      [
        "constant",
        -10.15307170027244
      ],
      [
        "amp",
        -10.153094192695079
      ],
      [
        "april",
        -10.153140886711457
      ],
      [
        "extremist",
        -10.153217205380223
      ],
      [
        "black",
        -10.156829695858427
      ],
      [
        "reasonable",
        -10.156929817704572
      ],
      [
        "escape",
        -10.157998950824116
      ],
      [
        "race",
        -10.159030719313414
      ],
      [
        "vot",
        -10.159503458827691
      ],
      [
        "assess",
        -10.159817366541326
      ],
      [
        "reward",
        -10.161130269278413
      ],
      [
        "fewer",
        -10.161197076764301
      ],
      [
        "survival",
        -10.161342673115321
      ],
      [
        "thanks",
        -10.162386671985947
      ],
      [
        "bas",
        -10.163162531084291
      ],
      [
        "woman",
        -10.165553447646353
      ],
      [
        "love",
        -10.166025342082666
      ],
      [
        "chronic",
        -10.166073276511675
      ],
      [
        "involv",
        -10.168015380038785
      ],
      [
        "disrupt",
        -10.168285816971682
      ],
      [
        "opposite",
        -10.168382339655043
      ],
      [
        "catch",
        -10.168382557420994
      ],
      [
        "original",
        -10.16925940087198
      ],
      [
        "blow",
        -10.169712881240498
      ],
      [
        "ership",
        -10.170561963821822
      ],
      [
        "waste",
        -10.171916031542066
      ],
      [
        "ible",
        -10.172162670299741
      ],
      [
        "fragil",
        -10.173199748154758
      ],
      [
        "2020",
        -10.17335389093692
      ],
      [
        "perfect",
        -10.176093417603795
      ],
      [
        "promising",
        -10.176125802535756
      ],
      [
        "brutal",
        -10.176131480750978
      ],
      [
        "expense",
        -10.176131517892028
      ],
      [
        "withdrawal",
        -10.177557620675444
      ],
      [
        "35",
        -10.178720112244454
      ],
      [
        "revolutionar",
        -10.178918133092143
      ],
      [
        "father",
        -10.180050224777647
      ],
      [
        "ble",
        -10.182514459334415
      ],
      [
        "kosov",
        -10.18371705938089
      ],
      [
        "explicit",
        -10.183943948587942
      ],
      [
        "opening",
        -10.184375693809272
      ],
      [
        "pull",
        -10.184792928277712
      ],
      [
        "liance",
        -10.188070869560319
      ],
      [
        "starter",
        -10.188532194818634
      ],
      [
        "swede",
        -10.188958223838878
      ],
      [
        "compete",
        -10.189159407070658
      ],
      [
        "rom",
        -10.191592154729339
      ],
      [
        "empire",
        -10.191817972459763
      ],
      [
        "resort",
        -10.192533447348566
      ],
      [
        "recogniz",
        -10.193305708809529
      ],
      [
        "istic",
        -10.193685232273468
      ],
      [
        "stem",
        -10.197376910124142
      ],
      [
        "processe",
        -10.198023303070737
      ],
      [
        "spur",
        -10.198921613427938
      ],
      [
        "deploy",
        -10.199163858737634
      ],
      [
        "integr",
        -10.199678062570804
      ],
      [
        "felt",
        -10.19981197936743
      ],
      [
        "kept",
        -10.199917316994037
      ],
      [
        "skill",
        -10.200909142531327
      ],
      [
        "separate",
        -10.203832806107137
      ],
      [
        "flexi",
        -10.206801073196106
      ],
      [
        "24",
        -10.206945232308236
      ],
      [
        "participant",
        -10.20775447227454
      ],
      [
        "association",
        -10.207754472518056
      ],
      [
        "talent",
        -10.207858169775989
      ],
      [
        "adverse",
        -10.208223823622994
      ],
      [
        "table",
        -10.21066824915267
      ],
      [
        "jin",
        -10.211462574320372
      ],
      [
        "engagement",
        -10.211966298366612
      ],
      [
        "myan",
        -10.212844907694414
      ],
      [
        "chemical",
        -10.215812929031042
      ],
      [
        "nineteen",
        -10.215819151877193
      ],
      [
        "demographic",
        -10.215824470825867
      ],
      [
        "chairman",
        -10.215970674944757
      ],
      [
        "declaration",
        -10.2160059288855
      ],
      [
        "downward",
        -10.216087802551328
      ],
      [
        "fears",
        -10.216099618101964
      ],
      [
        "weather",
        -10.21621606805056
      ],
      [
        "tial",
        -10.21641038343493
      ],
      [
        "empower",
        -10.216770644706349
      ],
      [
        "pp",
        -10.219146934382813
      ],
      [
        "ke",
        -10.220565076915943
      ],
      [
        "journalist",
        -10.221341579231616
      ],
      [
        "mount",
        -10.222559506142481
      ],
      [
        "stabiliz",
        -10.222627031134328
      ],
      [
        "historic",
        -10.22282575551495
      ],
      [
        "driver",
        -10.223542605468786
      ],
      [
        "girl",
        -10.223544816198226
      ],
      [
        "copenhagen",
        -10.223949069857234
      ],
      [
        "nominal",
        -10.223950868334036
      ],
      [
        "academic",
        -10.224266008096716
      ],
      [
        "crash",
        -10.224450953924297
      ],
      [
        "craft",
        -10.224476167003761
      ],
      [
        "grand",
        -10.22545909527502
      ],
      [
        "confirm",
        -10.225656308340122
      ],
      [
        "persist",
        -10.227422933049708
      ],
      [
        "pain",
        -10.229695563051262
      ],
      [
        "proliferati",
        -10.23137257480465
      ],
      [
        "served",
        -10.232740688970065
      ],
      [
        "stimulate",
        -10.234144559883163
      ],
      [
        "inflow",
        -10.238053652438552
      ],
      [
        "gene",
        -10.239067279357535
      ],
      [
        "dam",
        -10.239284472970885
      ],
      [
        "wish",
        -10.240090688927294
      ],
      [
        "hospital",
        -10.240579406064377
      ],
      [
        "valu",
        -10.240637363106401
      ],
      [
        "restrict",
        -10.240708452494133
      ],
      [
        "emlin",
        -10.240856347051746
      ],
      [
        "195",
        -10.24153619367084
      ],
      [
        "progressive",
        -10.24170610930529
      ],
      [
        "christian",
        -10.242674478160101
      ],
      [
        "parliamentar",
        -10.245339851548849
      ],
      [
        "dub",
        -10.24726977878679
      ],
      [
        "atlantic",
        -10.248718753850943
      ],
      [
        "vladi",
        -10.248743670177664
      ],
      [
        "obtain",
        -10.2487461626292
      ],
      [
        "donald",
        -10.248819248054831
      ],
      [
        "1960",
        -10.249155741809794
      ],
      [
        "intention",
        -10.249512055207914
      ],
      [
        "ear",
        -10.252020320811088
      ],
      [
        "math",
        -10.252780006982908
      ],
      [
        "park",
        -10.254316831964054
      ],
      [
        "guid",
        -10.255885032019618
      ],
      [
        "earning",
        -10.256324309896831
      ],
      [
        "davi",
        -10.256434586750194
      ],
      [
        "palestin",
        -10.257108506689365
      ],
      [
        "california",
        -10.257146948642216
      ],
      [
        "legac",
        -10.257159038154729
      ],
      [
        "extraordinar",
        -10.257208861138912
      ],
      [
        "illegal",
        -10.257257182501577
      ],
      [
        "primari",
        -10.259058270732533
      ],
      [
        "suit",
        -10.261886738218154
      ],
      [
        "date",
        -10.262862669575508
      ],
      [
        "lab",
        -10.263223857500064
      ],
      [
        "capitalis",
        -10.265500992572388
      ],
      [
        "perception",
        -10.265587301634033
      ],
      [
        "holder",
        -10.265597855156571
      ],
      [
        "simultaneous",
        -10.26562152477014
      ],
      [
        "philippine",
        -10.265636313073832
      ],
      [
        "entail",
        -10.265649404549455
      ],
      [
        "director",
        -10.26699121701066
      ],
      [
        "corrupt",
        -10.267874169201251
      ],
      [
        "debtor",
        -10.269188835630239
      ],
      [
        "constitute",
        -10.26930422264801
      ],
      [
        "prefer",
        -10.270622738310603
      ],
      [
        "jew",
        -10.273649183670063
      ],
      [
        "fate",
        -10.273868843409923
      ],
      [
        "understo",
        -10.274028615262221
      ],
      [
        "province",
        -10.274168553706165
      ],
      [
        "bolster",
        -10.274168845244045
      ],
      [
        "prompt",
        -10.274172056933693
      ],
      [
        "heat",
        -10.275337863250726
      ],
      [
        "bomb",
        -10.27571606346481
      ],
      [
        "print",
        -10.276637380539228
      ],
      [
        "coup",
        -10.27673138428612
      ],
      [
        "connected",
        -10.276833123631269
      ],
      [
        "downturn",
        -10.277026728898868
      ],
      [
        "par",
        -10.277676652352525
      ],
      [
        "plent",
        -10.277719676647603
      ],
      [
        "deserve",
        -10.277836047699413
      ],
      [
        "rote",
        -10.279375196304283
      ],
      [
        "article",
        -10.28184947795841
      ],
      [
        "]",
        -10.282789222972314
      ],
      [
        "[",
        -10.282789222972314
      ],
      [
        "concrete",
        -10.282789225746257
      ],
      [
        "colleague",
        -10.282798986901113
      ],
      [
        "vulnerabilit",
        -10.282838854936145
      ],
      [
        "macro",
        -10.283537263292068
      ],
      [
        "governmental",
        -10.284247246903526
      ],
      [
        "attend",
        -10.284317723534805
      ],
      [
        "communis",
        -10.28458312616382
      ],
      [
        "transparent",
        -10.285782633304215
      ],
      [
        "informal",
        -10.287097908130615
      ],
      [
        "activist",
        -10.287118469648036
      ],
      [
        "occurr",
        -10.287643121235
      ],
      [
        "creative",
        -10.290856286798467
      ],
      [
        "approve",
        -10.291412325463636
      ],
      [
        "ideological",
        -10.291501571002943
      ],
      [
        "nationalism",
        -10.292297664043696
      ],
      [
        "pan",
        -10.29381189236453
      ],
      [
        "dropp",
        -10.294578087172555
      ],
      [
        "write",
        -10.294676787857796
      ],
      [
        "latter",
        -10.295171136575547
      ],
      [
        "logic",
        -10.295270405438977
      ],
      [
        "impos",
        -10.297102307353924
      ],
      [
        "crowd",
        -10.299425767647822
      ],
      [
        "libert",
        -10.300254355424483
      ],
      [
        "respective",
        -10.300643343786117
      ],
      [
        "equalit",
        -10.300795094530827
      ],
      [
        "cap",
        -10.30092750310732
      ],
      [
        "chose",
        -10.30102092209215
      ],
      [
        "hill",
        -10.302570159694138
      ],
      [
        "ties",
        -10.302583589450055
      ],
      [
        "bind",
        -10.303466055656468
      ],
      [
        "river",
        -10.30391307736863
      ],
      [
        "riche",
        -10.305656710391112
      ],
      [
        "resolv",
        -10.305703873152979
      ],
      [
        "halt",
        -10.30651210294738
      ],
      [
        "absorb",
        -10.30814267664757
      ],
      [
        "birth",
        -10.30817892390784
      ],
      [
        "aspect",
        -10.30912034821375
      ],
      [
        "procedure",
        -10.31093554910718
      ],
      [
        "regulate",
        -10.31179476020642
      ],
      [
        "feeling",
        -10.311995035548348
      ],
      [
        "accord",
        -10.3126880070271
      ],
      [
        "meant",
        -10.313407256635264
      ],
      [
        "truck",
        -10.31373702966761
      ],
      [
        "reliabl",
        -10.313763481029053
      ],
      [
        "purchas",
        -10.314286646241742
      ],
      [
        "uncertain",
        -10.315151153170694
      ],
      [
        "smart",
        -10.315353078467691
      ],
      [
        "determin",
        -10.315364844260692
      ],
      [
        "secret",
        -10.315396621190928
      ],
      [
        "persuade",
        -10.316093683866129
      ],
      [
        "struggl",
        -10.316349619662942
      ],
      [
        "quo",
        -10.317242958623059
      ],
      [
        "sophisticat",
        -10.318034934836179
      ],
      [
        "application",
        -10.318035668576723
      ],
      [
        "characterize",
        -10.318062394359124
      ],
      [
        "gulf",
        -10.318560994811595
      ],
      [
        "memor",
        -10.318610013826408
      ],
      [
        "card",
        -10.318828067952259
      ],
      [
        "drag",
        -10.318959540847935
      ],
      [
        "introduc",
        -10.319045193090846
      ],
      [
        "marked",
        -10.319378743286038
      ],
      [
        "cow",
        -10.321560588512792
      ],
      [
        "minim",
        -10.322728162033538
      ],
      [
        "bail",
        -10.325144213816294
      ],
      [
        "spirit",
        -10.32685775145805
      ],
      [
        "square",
        -10.327045303703908
      ],
      [
        "indicator",
        -10.327952423437337
      ],
      [
        "21",
        -10.328725173340583
      ],
      [
        "polls",
        -10.32895285443051
      ],
      [
        "28",
        -10.329601262050094
      ],
      [
        "absolute",
        -10.336134852022207
      ],
      [
        "keynesian",
        -10.336167897736537
      ],
      [
        "expression",
        -10.336265493121054
      ],
      [
        "deny",
        -10.336937942725399
      ],
      [
        "approache",
        -10.338294868618506
      ],
      [
        "iron",
        -10.338771059326696
      ],
      [
        "rational",
        -10.339027642948576
      ],
      [
        "27",
        -10.341014039452682
      ],
      [
        "mobile",
        -10.341606211132675
      ],
      [
        "roll",
        -10.341912653852575
      ],
      [
        "read",
        -10.343068900119821
      ],
      [
        "offering",
        -10.34335380833691
      ],
      [
        "ping",
        -10.3452412420721
      ],
      [
        "safeguard",
        -10.345468696253715
      ],
      [
        "widen",
        -10.345772985406557
      ],
      [
        "shia",
        -10.346518564886896
      ],
      [
        "identifie",
        -10.346596615710526
      ],
      [
        "phone",
        -10.346990569381465
      ],
      [
        "operat",
        -10.347014146547856
      ],
      [
        "socialist",
        -10.347668653569562
      ],
      [
        "canad",
        -10.349244080733865
      ],
      [
        "ruler",
        -10.35187019881321
      ],
      [
        "therland",
        -10.352867926362306
      ],
      [
        "author",
        -10.353820697120991
      ],
      [
        "sales",
        -10.353901172576467
      ],
      [
        "antibiotic",
        -10.354568423896293
      ],
      [
        "accurate",
        -10.354568431207587
      ],
      [
        "television",
        -10.354574137123523
      ],
      [
        "taliban",
        -10.354584835358946
      ],
      [
        "king",
        -10.354792566946093
      ],
      [
        "enact",
        -10.354926482591836
      ],
      [
        "ver",
        -10.356019432914303
      ],
      [
        "posed",
        -10.356047654420848
      ],
      [
        "nigeria",
        -10.356877764145082
      ],
      [
        "flexibl",
        -10.357757270665608
      ],
      [
        "prolong",
        -10.358684138513269
      ],
      [
        "cker",
        -10.360515849330993
      ],
      [
        "restor",
        -10.360972738081703
      ],
      [
        "settle",
        -10.361981778282036
      ],
      [
        "erupt",
        -10.363846787979494
      ],
      [
        "supreme",
        -10.363914295413498
      ],
      [
        "devastating",
        -10.363923205150833
      ],
      [
        "blind",
        -10.363949490705757
      ],
      [
        "confrontation",
        -10.364905361193976
      ],
      [
        "epression",
        -10.367182182681729
      ],
      [
        "ide",
        -10.367423605454984
      ],
      [
        "dealing",
        -10.36762561555384
      ],
      [
        "imp",
        -10.368336763411767
      ],
      [
        "skeptic",
        -10.369569367441992
      ],
      [
        "reluctant",
        -10.370705409737345
      ],
      [
        "film",
        -10.373321777613883
      ],
      [
        "predecessor",
        -10.373348179927335
      ],
      [
        "multiple",
        -10.373353211459793
      ],
      [
        "bargain",
        -10.373657279195589
      ],
      [
        "document",
        -10.373711823064083
      ],
      [
        "understandabl",
        -10.374256925960752
      ],
      [
        "visibl",
        -10.374674626060795
      ],
      [
        "initiate",
        -10.37500078632009
      ],
      [
        "mobil",
        -10.375406913500903
      ],
      [
        "ional",
        -10.376452353832123
      ],
      [
        "ize",
        -10.378022042757973
      ],
      [
        "occurre",
        -10.378044543026636
      ],
      [
        "participate",
        -10.37902537837872
      ],
      [
        "criticize",
        -10.379659806640086
      ],
      [
        "intervene",
        -10.380341568850033
      ],
      [
        "margin",
        -10.381753313705538
      ],
      [
        "x",
        -10.38275222579836
      ],
      [
        "equip",
        -10.38288491068411
      ],
      [
        "giant",
        -10.38289307686059
      ],
      [
        "coordinate",
        -10.383475644421605
      ],
      [
        "guard",
        -10.384195373376487
      ],
      [
        "governor",
        -10.38517876977325
      ],
      [
        "complicate",
        -10.38518660583918
      ],
      [
        "argu",
        -10.38578875095575
      ],
      [
        "contribut",
        -10.386442791471815
      ],
      [
        "maker",
        -10.387806139312534
      ],
      [
        "mobilize",
        -10.388058850554806
      ],
      [
        "nutrition",
        -10.389152106306533
      ],
      [
        "que",
        -10.391104159862024
      ],
      [
        "exacerbate",
        -10.391878014492953
      ],
      [
        "anniversar",
        -10.392487375287974
      ],
      [
        "winner",
        -10.393340404514927
      ],
      [
        "cuba",
        -10.393417857398557
      ],
      [
        "worsen",
        -10.393481588367084
      ],
      [
        "seeming",
        -10.395511454067003
      ],
      [
        "cure",
        -10.396853353327229
      ],
      [
        "tackle",
        -10.399030967809686
      ],
      [
        "commit",
        -10.400972741537345
      ],
      [
        "publishe",
        -10.401323663820314
      ],
      [
        "collect",
        -10.40196469917683
      ],
      [
        "realistic",
        -10.402067375707876
      ],
      [
        "catastrophe",
        -10.402196111867212
      ],
      [
        "google",
        -10.402196111936512
      ],
      [
        "fragment",
        -10.402196117989295
      ],
      [
        "fashion",
        -10.402196137624568
      ],
      [
        "staff",
        -10.402203185443902
      ],
      [
        "retirement",
        -10.402446805424102
      ],
      [
        "site",
        -10.402536205078714
      ],
      [
        "honor",
        -10.40287396510356
      ],
      [
        "ung",
        -10.403499027868925
      ],
      [
        "ignor",
        -10.404423176267915
      ],
      [
        "content",
        -10.40446923621365
      ],
      [
        "focuse",
        -10.408010892536927
      ],
      [
        "converge",
        -10.408013294353292
      ],
      [
        "rebalanc",
        -10.40802561483546
      ],
      [
        "lock",
        -10.409110098824264
      ],
      [
        "brain",
        -10.40995454141002
      ],
      [
        "engine",
        -10.411382191758548
      ],
      [
        "dutch",
        -10.412000833593538
      ],
      [
        "reputation",
        -10.41200216563893
      ],
      [
        "appreciation",
        -10.412011057859022
      ],
      [
        "urmo",
        -10.412560783189216
      ],
      [
        "undertake",
        -10.412877042531026
      ],
      [
        "22",
        -10.413088085937876
      ],
      [
        "wic",
        -10.414139379344409
      ],
      [
        "panel",
        -10.41567014771902
      ],
      [
        "75",
        -10.416566054538041
      ],
      [
        "193",
        -10.41725145570093
      ],
      [
        "inspire",
        -10.417512027700077
      ],
      [
        "controll",
        -10.417739739609774
      ],
      [
        "stabilize",
        -10.418031745881828
      ],
      [
        "poll",
        -10.418129662591399
      ],
      [
        "eyes",
        -10.418504653073912
      ],
      [
        "warne",
        -10.419932904656044
      ],
      [
        "command",
        -10.421353089192902
      ],
      [
        "monopol",
        -10.421404995538929
      ],
      [
        "tariff",
        -10.421901033494358
      ],
      [
        "shrink",
        -10.42190149099245
      ],
      [
        "prize",
        -10.421917254902665
      ],
      [
        "virus",
        -10.421954644925417
      ],
      [
        "request",
        -10.422223176056551
      ],
      [
        "code",
        -10.422393336241493
      ],
      [
        "torture",
        -10.422609202302077
      ],
      [
        "coast",
        -10.424728287761074
      ],
      [
        "automatic",
        -10.426189861451943
      ],
      [
        "hike",
        -10.427326180874543
      ],
      [
        "proven",
        -10.429842838423376
      ],
      [
        "condemn",
        -10.431529708632937
      ],
      [
        "functioning",
        -10.431595177628129
      ],
      [
        "react",
        -10.431620526797772
      ],
      [
        "justify",
        -10.431911812263323
      ],
      [
        "febr",
        -10.431914076391184
      ],
      [
        "mainstream",
        -10.43206554786604
      ],
      [
        "toxic",
        -10.432400240574694
      ],
      [
        "dilemma",
        -10.432551297841622
      ],
      [
        "eager",
        -10.432568575174962
      ],
      [
        "turki",
        -10.43498656231839
      ],
      [
        "qa",
        -10.43561941238666
      ],
      [
        "insight",
        -10.4362366161482
      ],
      [
        "statistic",
        -10.436648501496832
      ],
      [
        "indebted",
        -10.436672506568765
      ],
      [
        "ran",
        -10.439606973028067
      ],
      [
        "outlook",
        -10.440540205902765
      ],
      [
        "sole",
        -10.440643895299143
      ],
      [
        "induce",
        -10.441070867923038
      ],
      [
        "slight",
        -10.44108169101051
      ],
      [
        "emphasi",
        -10.44135114389023
      ],
      [
        "prince",
        -10.44197972963519
      ],
      [
        "approval",
        -10.442002058454172
      ],
      [
        "evident",
        -10.442002335626434
      ],
      [
        "persistent",
        -10.442004174397283
      ],
      [
        "undoubted",
        -10.442033505052638
      ],
      [
        "newspaper",
        -10.442199050633931
      ],
      [
        "meaningful",
        -10.442204184539193
      ],
      [
        "sudan",
        -10.442213056417494
      ],
      [
        "ideolog",
        -10.442240351172357
      ],
      [
        "witness",
        -10.442299291995276
      ],
      [
        "exclusive",
        -10.442583242221513
      ],
      [
        "storm",
        -10.443369985294446
      ],
      [
        "seize",
        -10.443382029938334
      ],
      [
        "sent",
        -10.443731644428432
      ],
      [
        "unwilling",
        -10.445780772539022
      ],
      [
        "preserve",
        -10.446755403222861
      ],
      [
        "?”",
        -10.447145145634686
      ],
      [
        "lair",
        -10.451902279190247
      ],
      [
        "·",
        -10.452103185096004
      ],
      [
        "criteri",
        -10.45220611731055
      ],
      [
        "disruption",
        -10.452330876317788
      ],
      [
        "inclusion",
        -10.452470889733863
      ],
      [
        "gate",
        -10.452569287938672
      ],
      [
        "contraction",
        -10.452577093334503
      ],
      [
        "terran",
        -10.452870956511191
      ],
      [
        "gross",
        -10.453607883055433
      ],
      [
        "discriminati",
        -10.454288500211081
      ],
      [
        "strict",
        -10.454627711525756
      ],
      [
        "broken",
        -10.455200636336402
      ],
      [
        "comp",
        -10.45543127235333
      ],
      [
        "revive",
        -10.458423683286998
      ],
      [
        "arise",
        -10.459736912878263
      ],
      [
        "evolution",
        -10.460278054857993
      ],
      [
        "impede",
        -10.460472075032875
      ],
      [
        "recall",
        -10.46109543926833
      ],
      [
        "ice",
        -10.461259263472689
      ],
      [
        "requir",
        -10.462237541818292
      ],
      [
        "episode",
        -10.462775586324561
      ],
      [
        "rage",
        -10.46597464782612
      ],
      [
        "phenomen",
        -10.467472987040388
      ],
      [
        "origin",
        -10.470030688747336
      ],
      [
        "advanc",
        -10.470187860345908
      ],
      [
        "analyst",
        -10.47075945902914
      ],
      [
        "shadow",
        -10.471627471529827
      ],
      [
        "organize",
        -10.471665803242267
      ],
      [
        "retail",
        -10.471744282972187
      ],
      [
        "neglect",
        -10.472932060291487
      ],
      [
        "implicit",
        -10.47296701111236
      ],
      [
        "withdraw",
        -10.473018283415108
      ],
      [
        "chair",
        -10.473709019160196
      ],
      [
        "23",
        -10.474208023335136
      ],
      [
        "span",
        -10.474708564763084
      ],
      [
        "breakthrough",
        -10.474841370462471
      ],
      [
        "adviser",
        -10.475156716449181
      ],
      [
        "unilateral",
        -10.476072803261395
      ],
      [
        "kenya",
        -10.476479964164206
      ],
      [
        "southeast",
        -10.476666729198595
      ],
      [
        "experienc",
        -10.478243607538705
      ],
      [
        "insufficient",
        -10.479795918777187
      ],
      [
        "mitigate",
        -10.479932523578935
      ],
      [
        "rang",
        -10.481071787596912
      ],
      [
        "sensitive",
        -10.483068648529951
      ],
      [
        "jordan",
        -10.483416198378208
      ],
      [
        "privilege",
        -10.483458376112257
      ],
      [
        "distinguish",
        -10.483458376239808
      ],
      [
        "contagio",
        -10.483458434438566
      ],
      [
        "grave",
        -10.483469757482482
      ],
      [
        "patent",
        -10.483473546155551
      ],
      [
        "distress",
        -10.483773120570483
      ],
      [
        "1950",
        -10.484141057271191
      ],
      [
        "erie",
        -10.484864015984922
      ],
      [
        "regain",
        -10.487190528900157
      ],
      [
        "reinforc",
        -10.487246885696937
      ],
      [
        "web",
        -10.487823348537713
      ],
      [
        "concentrate",
        -10.4900351370816
      ],
      [
        "invasion",
        -10.49073294193634
      ],
      [
        "yang",
        -10.492506854900865
      ],
      [
        "mother",
        -10.49296541401558
      ],
      [
        "throw",
        -10.494061805451015
      ],
      [
        "atmospher",
        -10.494067821963071
      ],
      [
        "derivative",
        -10.494096673948944
      ],
      [
        "dozen",
        -10.494108378162075
      ],
      [
        "manipulation",
        -10.494127021960772
      ],
      [
        "damaging",
        -10.494160485061093
      ],
      [
        "vis",
        -10.494162418630134
      ],
      [
        "neighborhood",
        -10.494308814515994
      ],
      [
        "notion",
        -10.494505261637633
      ],
      [
        "happi",
        -10.495852295466065
      ],
      [
        "outbreak",
        -10.49785857747754
      ],
      [
        "istan",
        -10.498993632902753
      ],
      [
        "connection",
        -10.499420799398605
      ],
      [
        "com",
        -10.501618761646037
      ],
      [
        "spiral",
        -10.504849592735866
      ],
      [
        "dimension",
        -10.504849613735182
      ],
      [
        "volume",
        -10.504851467386878
      ],
      [
        "ollah",
        -10.504854981029867
      ],
      [
        "impressive",
        -10.5048616668476
      ],
      [
        "electorate",
        -10.504877081025654
      ],
      [
        "sensibl",
        -10.50489273947872
      ],
      [
        "steel",
        -10.505038491834167
      ],
      [
        "trip",
        -10.50567061313161
      ],
      [
        "acquire",
        -10.506824654816752
      ],
      [
        "resilienc",
        -10.50682858872559
      ],
      [
        "tech",
        -10.50717395492061
      ],
      [
        "imperial",
        -10.50862188308168
      ],
      [
        "serbia",
        -10.508666560673548
      ],
      [
        "entit",
        -10.509039259938266
      ],
      [
        "berkel",
        -10.509431481418556
      ],
      [
        "translate",
        -10.509494572012791
      ],
      [
        "challeng",
        -10.513522498586783
      ],
      [
        "flight",
        -10.51375199212221
      ],
      [
        "prison",
        -10.514325836719788
      ],
      [
        "influen",
        -10.514340095062261
      ],
      [
        "epidemic",
        -10.515718927636335
      ],
      [
        "recruit",
        -10.515718929703405
      ],
      [
        "striking",
        -10.515720965280533
      ],
      [
        "peer",
        -10.516069393517158
      ],
      [
        "scandal",
        -10.516085080602354
      ],
      [
        "dominant",
        -10.516172025113441
      ],
      [
        "trap",
        -10.51717249992442
      ],
      [
        "stick",
        -10.517930830843222
      ],
      [
        "enrich",
        -10.51925190545414
      ],
      [
        "evolve",
        -10.519265645944039
      ],
      [
        "tunisia",
        -10.519583190739807
      ],
      [
        "classic",
        -10.519979563037662
      ],
      [
        "anticipate",
        -10.520455721215725
      ],
      [
        "therap",
        -10.521875506901369
      ],
      [
        "hung",
        -10.52197111985875
      ],
      [
        "inefficient",
        -10.523202731457381
      ],
      [
        "route",
        -10.523526184136779
      ],
      [
        "minded",
        -10.524414116368558
      ],
      [
        "kar",
        -10.525047268852521
      ],
      [
        "recommend",
        -10.52634925493646
      ],
      [
        "insolven",
        -10.526483709417185
      ],
      [
        "hez",
        -10.526515992960578
      ],
      [
        "super",
        -10.526553122205677
      ],
      [
        "circle",
        -10.526598704420579
      ],
      [
        "receiv",
        -10.527077535885034
      ],
      [
        "spani",
        -10.527431318146485
      ],
      [
        "bodie",
        -10.528203355021638
      ],
      [
        "admit",
        -10.528461633267653
      ],
      [
        "distribute",
        -10.528586713363886
      ],
      [
        "vard",
        -10.529215208951726
      ],
      [
        "devote",
        -10.529247689171482
      ],
      [
        "hurt",
        -10.529522081586828
      ],
      [
        "publish",
        -10.532218638612147
      ],
      [
        "career",
        -10.532269301989158
      ],
      [
        "successor",
        -10.532537236674973
      ],
      [
        "solid",
        -10.532731961995236
      ],
      [
        "older",
        -10.533092479990938
      ],
      [
        "ease",
        -10.533659564954302
      ],
      [
        "comprise",
        -10.533946118959541
      ],
      [
        "pick",
        -10.534657854199633
      ],
      [
        "cheape",
        -10.536661848211153
      ],
      [
        "occupation",
        -10.537703965915288
      ],
      [
        "bureaucrac",
        -10.537819054878131
      ],
      [
        "parallel",
        -10.537819344605843
      ],
      [
        "protocol",
        -10.537820600213406
      ],
      [
        "pool",
        -10.537826303051233
      ],
      [
        "routine",
        -10.53786656645622
      ],
      [
        "generous",
        -10.538178132083655
      ],
      [
        "happening",
        -10.538284155401907
      ],
      [
        "affordabl",
        -10.53975697383568
      ],
      [
        "les",
        -10.54292793678165
      ],
      [
        "ngli",
        -10.543253608302283
      ],
      [
        "star",
        -10.54430636441899
      ],
      [
        "remind",
        -10.545538529583556
      ],
      [
        "diplomat",
        -10.54812414121675
      ],
      [
        "bloc",
        -10.548143010898842
      ],
      [
        "stream",
        -10.548301175757597
      ],
      [
        "doctrine",
        -10.549055004654683
      ],
      [
        "traged",
        -10.549080792945247
      ],
      [
        "transatlantic",
        -10.549090348338504
      ],
      [
        "rock",
        -10.549165619097218
      ],
      [
        "nforcement",
        -10.550385627827533
      ],
      [
        "announcement",
        -10.55052638932312
      ],
      [
        "pure",
        -10.550867902764583
      ],
      [
        "bacc",
        -10.551009943827678
      ],
      [
        "adoption",
        -10.551112558685805
      ],
      [
        "foot",
        -10.552641841147793
      ],
      [
        "foreigner",
        -10.552682829294604
      ],
      [
        "fold",
        -10.556519396235853
      ],
      [
        "trans",
        -10.55755026008616
      ],
      [
        "”)",
        -10.557766365910684
      ],
      [
        "chen",
        -10.55818614502057
      ],
      [
        "accomplish",
        -10.55980161088511
      ],
      [
        "piece",
        -10.560243817600117
      ],
      [
        "except",
        -10.56029362090155
      ],
      [
        "college",
        -10.560418707035428
      ],
      [
        "exposure",
        -10.560427541812262
      ],
      [
        "curb",
        -10.560431564322524
      ],
      [
        "soldier",
        -10.56044992730759
      ],
      [
        "keynes",
        -10.560451468686766
      ],
      [
        "deliberate",
        -10.560463553627951
      ],
      [
        "madri",
        -10.560781974910514
      ],
      [
        "otten",
        -10.56126664303805
      ],
      [
        "rying",
        -10.561887754777299
      ],
      [
        "anger",
        -10.56225379679858
      ],
      [
        "civilization",
        -10.562310200177269
      ],
      [
        "iraqi",
        -10.562477620130995
      ],
      [
        "shortfall",
        -10.563751998137068
      ],
      [
        "champion",
        -10.564103154134635
      ],
      [
        "headline",
        -10.565604457716008
      ],
      [
        "roads",
        -10.568049865056048
      ],
      [
        "permit",
        -10.56851987794171
      ],
      [
        "mari",
        -10.568759146830603
      ],
      [
        "demonstrat",
        -10.569282831474613
      ],
      [
        "censor",
        -10.571914850290096
      ],
      [
        "mortal",
        -10.571927236397942
      ],
      [
        "notice",
        -10.57298862443507
      ],
      [
        "pric",
        -10.573159291127526
      ],
      [
        "pressing",
        -10.573449360630095
      ],
      [
        "izing",
        -10.573938135479397
      ],
      [
        "rou",
        -10.574665143744216
      ],
      [
        "loser",
        -10.577858099297432
      ],
      [
        "bern",
        -10.578152133017571
      ],
      [
        "comparabl",
        -10.578427777050734
      ],
      [
        "mu",
        -10.578808109735638
      ],
      [
        "toleran",
        -10.579363795779614
      ],
      [
        "proceed",
        -10.580786345849578
      ],
      [
        "dden",
        -10.581213915823184
      ],
      [
        "employer",
        -10.581461584027606
      ],
      [
        "hence",
        -10.5818691071906
      ],
      [
        "isolation",
        -10.582523033657726
      ],
      [
        "enate",
        -10.582773122675334
      ],
      [
        "nazi",
        -10.582790901571606
      ],
      [
        "chávez",
        -10.583540800707432
      ],
      [
        "robert",
        -10.583544855207283
      ],
      [
        "mood",
        -10.583667183745819
      ],
      [
        "owners",
        -10.583784229644934
      ],
      [
        "modernization",
        -10.58557006534588
      ],
      [
        "tradable",
        -10.586014502087583
      ],
      [
        "appreciate",
        -10.586502365035958
      ],
      [
        "arrive",
        -10.586741097019843
      ],
      [
        "numer",
        -10.587028049034178
      ],
      [
        "acute",
        -10.5871348023529
      ],
      [
        "gen",
        -10.587225023843676
      ],
      [
        "lisb",
        -10.588682776685257
      ],
      [
        "workforce",
        -10.593133913709071
      ],
      [
        "bangladesh",
        -10.593480919972247
      ],
      [
        "punish",
        -10.594711969103054
      ],
      [
        "picture",
        -10.595307768199381
      ],
      [
        "manner",
        -10.59531026311102
      ],
      [
        "ecosystem",
        -10.59531351811691
      ],
      [
        "motivate",
        -10.59545450919131
      ],
      [
        "jean",
        -10.595490152420922
      ],
      [
        "hegemon",
        -10.596203779905537
      ],
      [
        "strain",
        -10.596932465494884
      ],
      [
        "icious",
        -10.599638352437612
      ],
      [
        "wild",
        -10.599891946821176
      ],
      [
        "compelling",
        -10.599957913264493
      ],
      [
        "georgia",
        -10.599962143248085
      ],
      [
        "dark",
        -10.602717749236366
      ],
      [
        "kim",
        -10.604516085079885
      ],
      [
        "exceptional",
        -10.605468612495917
      ],
      [
        "orthodox",
        -10.607210272463316
      ],
      [
        "ceiling",
        -10.607210902442006
      ],
      [
        "suspect",
        -10.607232271786824
      ],
      [
        "demonstration",
        -10.607300983169612
      ],
      [
        "sahara",
        -10.609300584116756
      ],
      [
        "prominent",
        -10.610041579528506
      ],
      [
        "sacrifice",
        -10.61235705857349
      ],
      [
        "dispos",
        -10.616297491683458
      ],
      [
        "tibet",
        -10.616435015634991
      ],
      [
        "stall",
        -10.617015735552572
      ],
      [
        "happ",
        -10.617299101052708
      ],
      [
        "controversial",
        -10.619278410684082
      ],
      [
        "familiar",
        -10.619283968940014
      ],
      [
        "compound",
        -10.619286841545573
      ],
      [
        "characteristic",
        -10.619291145479638
      ],
      [
        "fresh",
        -10.619480790773755
      ],
      [
        "compensati",
        -10.619574086546416
      ],
      [
        "prediction",
        -10.619622216800444
      ],
      [
        "consume",
        -10.62396567487612
      ],
      [
        "erode",
        -10.623989187450988
      ],
      [
        "!",
        -10.624105982027444
      ],
      [
        "austria",
        -10.62441371485934
      ],
      [
        "map",
        -10.626805467681308
      ],
      [
        "merit",
        -10.62900342495799
      ],
      [
        "tight",
        -10.629889710008367
      ],
      [
        "kan",
        -10.630556322668616
      ],
      [
        "disastrous",
        -10.631453583632648
      ],
      [
        "immense",
        -10.631453885592693
      ],
      [
        "inflict",
        -10.631454044389525
      ],
      [
        "ancien",
        -10.631454046952959
      ],
      [
        "remote",
        -10.631455529728271
      ],
      [
        "marriage",
        -10.631508665906729
      ],
      [
        "dictatorship",
        -10.631583623047295
      ],
      [
        "supervisor",
        -10.631705920406128
      ],
      [
        "denie",
        -10.6323527902094
      ],
      [
        "clos",
        -10.632409222131752
      ],
      [
        "jam",
        -10.637098305834318
      ],
      [
        "agent",
        -10.63738347640513
      ],
      [
        "deleverag",
        -10.63789482552042
      ],
      [
        "marginal",
        -10.639534363899319
      ],
      [
        "hungar",
        -10.641075909264153
      ],
      [
        "tract",
        -10.642768926443505
      ],
      [
        "reconciliation",
        -10.643810305465463
      ],
      [
        "inherent",
        -10.643822538066752
      ],
      [
        "breast",
        -10.643875631838078
      ],
      [
        "examine",
        -10.643913704337482
      ],
      [
        "pound",
        -10.64417531023177
      ],
      [
        "preference",
        -10.644758277058497
      ],
      [
        "pointed",
        -10.6471858575289
      ],
      [
        "prior",
        -10.648412561578034
      ],
      [
        "spurr",
        -10.651463907049408
      ],
      [
        "prepare",
        -10.653650473125314
      ],
      [
        "adult",
        -10.654539702006748
      ],
      [
        "predictabl",
        -10.655023058495232
      ],
      [
        "resident",
        -10.655373417774548
      ],
      [
        "fine",
        -10.655960944162219
      ],
      [
        "supervisi",
        -10.656073091843023
      ],
      [
        "artificial",
        -10.656299262229656
      ],
      [
        "portfolio",
        -10.656299262232103
      ],
      [
        "malaysia",
        -10.656300123161719
      ],
      [
        "earthquake",
        -10.65630238262722
      ],
      [
        "frontier",
        -10.656317693744754
      ],
      [
        "straightforward",
        -10.656324271650114
      ],
      [
        "privatization",
        -10.656338739150074
      ],
      [
        "tendenc",
        -10.656343799124308
      ],
      [
        "problematic",
        -10.656497761579043
      ],
      [
        "judgment",
        -10.656548515954896
      ],
      [
        "false",
        -10.65655369391618
      ],
      [
        "brazilian",
        -10.656559566486031
      ],
      [
        "dignit",
        -10.6571256449115
      ],
      [
        "village",
        -10.657222498004458
      ],
      [
        "multinational",
        -10.657508867624816
      ],
      [
        "storie",
        -10.657850275358456
      ],
      [
        "overlook",
        -10.658930685533724
      ],
      [
        "shap",
        -10.659060247496967
      ],
      [
        "raw",
        -10.659831274555854
      ],
      [
        "chao",
        -10.660380806288295
      ],
      [
        "inside",
        -10.661173779134696
      ],
      [
        "drone",
        -10.6613734021969
      ],
      [
        "mainl",
        -10.662491507602294
      ],
      [
        "capitalist",
        -10.66263559625205
      ],
      [
        "infection",
        -10.662779695632393
      ],
      [
        "accumulate",
        -10.66290272185608
      ],
      [
        "convincing",
        -10.663579728027328
      ],
      [
        "convert",
        -10.665136933788345
      ],
      [
        "desir",
        -10.66528174102325
      ],
      [
        "tactic",
        -10.665768572978294
      ],
      [
        "classe",
        -10.666026534595341
      ],
      [
        "inning",
        -10.668188278287648
      ],
      [
        "assum",
        -10.668237201121979
      ],
      [
        "surface",
        -10.668435244510057
      ],
      [
        "nmark",
        -10.668539076195481
      ],
      [
        "principal",
        -10.668957490079569
      ],
      [
        "hitler",
        -10.66895751438195
      ],
      [
        "superior",
        -10.66899188923172
      ],
      [
        "unleash",
        -10.668992775604234
      ],
      [
        "accelerat",
        -10.669145602969472
      ],
      [
        "location",
        -10.67107712930954
      ],
      [
        "tank",
        -10.671356356751053
      ],
      [
        "minimize",
        -10.671698074715003
      ],
      [
        "dog",
        -10.67309005793582
      ],
      [
        "eliminat",
        -10.674492808901146
      ],
      [
        "destabiliz",
        -10.675656571281916
      ],
      [
        "amid",
        -10.67583890885832
      ],
      [
        "ju",
        -10.675994577892466
      ],
      [
        "brand",
        -10.67602426569454
      ],
      [
        "accident",
        -10.676924133764047
      ],
      [
        "tim",
        -10.677076413172449
      ],
      [
        "rush",
        -10.677928162753751
      ],
      [
        "mos",
        -10.678230853747987
      ],
      [
        "complain",
        -10.679170713604815
      ],
      [
        "distort",
        -10.681445325012229
      ],
      [
        "minds",
        -10.681567515049887
      ],
      [
        "walk",
        -10.681582387235334
      ],
      [
        "laureate",
        -10.681778003025219
      ],
      [
        "plummet",
        -10.681778004310457
      ],
      [
        "hurricane",
        -10.68177803983849
      ],
      [
        "cypr",
        -10.681783750844073
      ],
      [
        "alleged",
        -10.681796881632295
      ],
      [
        "warrant",
        -10.681800403570513
      ],
      [
        "comparison",
        -10.68181372899018
      ],
      [
        "penalt",
        -10.681866785643198
      ],
      [
        "aspiration",
        -10.681869456715802
      ],
      [
        "assert",
        -10.68194488103735
      ],
      [
        "sphere",
        -10.68216257039467
      ],
      [
        "dividend",
        -10.682319381065295
      ],
      [
        "door",
        -10.682359143548847
      ],
      [
        "store",
        -10.683296011295706
      ],
      [
        "competence",
        -10.684241574609924
      ],
      [
        "background",
        -10.68477108581575
      ],
      [
        "pursuit",
        -10.68498833359999
      ],
      [
        "cast",
        -10.685003718997491
      ],
      [
        "landing",
        -10.68567678363365
      ],
      [
        "unfair",
        -10.68598075402279
      ],
      [
        "silk",
        -10.686886610009333
      ],
      [
        "unexpected",
        -10.68698453742806
      ],
      [
        "toll",
        -10.687056735278032
      ],
      [
        "kille",
        -10.688452382202556
      ],
      [
        "align",
        -10.690231321244188
      ],
      [
        "postpone",
        -10.69047164117671
      ],
      [
        "error",
        -10.691963720992263
      ],
      [
        "mexican",
        -10.693876981472318
      ],
      [
        "listen",
        -10.694112840705687
      ],
      [
        "presen",
        -10.69452344184769
      ],
      [
        "symbol",
        -10.694583523280208
      ],
      [
        "pillar",
        -10.694808319707594
      ],
      [
        "female",
        -10.694808797111545
      ],
      [
        "royal",
        -10.694812453659814
      ],
      [
        "lawyer",
        -10.69500675709712
      ],
      [
        "unacceptabl",
        -10.695659235649412
      ],
      [
        "teacher",
        -10.695727451571969
      ],
      [
        "swap",
        -10.696616197203774
      ],
      [
        "chi",
        -10.70044350616573
      ],
      [
        "rebuild",
        -10.701241142339788
      ],
      [
        "drought",
        -10.70155272170722
      ],
      [
        "eurobond",
        -10.701803505913151
      ],
      [
        "vary",
        -10.70223642923296
      ],
      [
        "mess",
        -10.702562329616658
      ],
      [
        "isolate",
        -10.703526434134947
      ],
      [
        "prudent",
        -10.704169683797218
      ],
      [
        "cars",
        -10.705090370722814
      ],
      [
        "citizen",
        -10.705143544111937
      ],
      [
        "defin",
        -10.705297399931716
      ],
      [
        "compensate",
        -10.705718216748501
      ],
      [
        "cooperate",
        -10.705969951355023
      ],
      [
        "scot",
        -10.70611942861921
      ],
      [
        "destructive",
        -10.7082480636921
      ],
      [
        "intense",
        -10.708288138886774
      ],
      [
        "kick",
        -10.708483975356726
      ],
      [
        "disappear",
        -10.708530777316344
      ],
      [
        "contemporar",
        -10.70857220151839
      ],
      [
        "ironic",
        -10.708733110438875
      ],
      [
        "underscore",
        -10.708868444934218
      ],
      [
        "luck",
        -10.708966437741001
      ],
      [
        "repair",
        -10.709924120254673
      ],
      [
        "contest",
        -10.709988677367999
      ],
      [
        "compet",
        -10.711752359516964
      ],
      [
        "mal",
        -10.712404774030857
      ],
      [
        "polar",
        -10.71323446634296
      ],
      [
        "jewi",
        -10.71376804678835
      ],
      [
        "engag",
        -10.714595329181318
      ],
      [
        "preserv",
        -10.714807593242028
      ],
      [
        "follower",
        -10.715307958806155
      ],
      [
        "alter",
        -10.716725380831992
      ],
      [
        "master",
        -10.716929272696987
      ],
      [
        "hani",
        -10.717755020462533
      ],
      [
        "fixe",
        -10.71812450435618
      ],
      [
        "ward",
        -10.71869146489594
      ],
      [
        "resilien",
        -10.71880662358258
      ],
      [
        "ated",
        -10.719560166887524
      ],
      [
        "allocate",
        -10.721199757992437
      ],
      [
        "catastrophic",
        -10.721256244013047
      ],
      [
        "pharmaceutical",
        -10.721256249078827
      ],
      [
        "symptom",
        -10.72125625522922
      ],
      [
        "czech",
        -10.721256278990253
      ],
      [
        "tsunami",
        -10.721256371057041
      ],
      [
        "berluscon",
        -10.721257759837203
      ],
      [
        "competitor",
        -10.721257773748357
      ],
      [
        "threshold",
        -10.72125871711771
      ],
      [
        "organic",
        -10.721285501257192
      ],
      [
        "admitted",
        -10.72155047617849
      ],
      [
        "400",
        -10.721553134299384
      ],
      [
        "marine",
        -10.722102843973751
      ],
      [
        "remov",
        -10.722149783846177
      ],
      [
        "troi",
        -10.722175503988893
      ],
      [
        "wins",
        -10.722963415157292
      ],
      [
        "worrying",
        -10.723222585857293
      ],
      [
        "custom",
        -10.724842055702375
      ],
      [
        "sentence",
        -10.725482505935195
      ],
      [
        "26",
        -10.726575030136097
      ],
      [
        "bust",
        -10.72668125488535
      ],
      [
        "draft",
        -10.727347560760704
      ],
      [
        "technocrat",
        -10.727371133736305
      ],
      [
        "150",
        -10.728249986663325
      ],
      [
        "declar",
        -10.730432972268318
      ],
      [
        "scene",
        -10.732165040818455
      ],
      [
        "stark",
        -10.732172588087561
      ],
      [
        "urge",
        -10.733847159594426
      ],
      [
        "violation",
        -10.734801983006625
      ],
      [
        "meltdown",
        -10.734954543268538
      ],
      [
        "premier",
        -10.7355565719952
      ],
      [
        "allocation",
        -10.736208841334955
      ],
      [
        "suppress",
        -10.738592070505343
      ],
      [
        "dysfunction",
        -10.73886919306096
      ],
      [
        "ritte",
        -10.739319595085156
      ],
      [
        "diet",
        -10.739904490285504
      ],
      [
        "occasion",
        -10.740413862522345
      ],
      [
        "calm",
        -10.74187083423588
      ],
      [
        "infectio",
        -10.743206471993178
      ],
      [
        "spot",
        -10.743221138636347
      ],
      [
        "edge",
        -10.74541370757235
      ],
      [
        "65",
        -10.745973067972269
      ],
      [
        "populis",
        -10.74667952340113
      ],
      [
        "elling",
        -10.746767795488404
      ],
      [
        "hedge",
        -10.74710306435453
      ],
      [
        "journal",
        -10.747424734573864
      ],
      [
        "distinct",
        -10.748255684218838
      ],
      [
        "league",
        -10.748463668043849
      ],
      [
        "ukrainian",
        -10.748468394631466
      ],
      [
        "comparative",
        -10.748473731034416
      ],
      [
        "scarce",
        -10.74851014538017
      ],
      [
        "anxiet",
        -10.748614128309143
      ],
      [
        "brief",
        -10.748745665792002
      ],
      [
        "render",
        -10.748883543426462
      ],
      [
        "deng",
        -10.749174702399173
      ],
      [
        "proclaim",
        -10.749706009559574
      ],
      [
        "preventi",
        -10.750489812327935
      ],
      [
        "mala",
        -10.750692409426627
      ],
      [
        "wolf",
        -10.750995532365874
      ],
      [
        "mario",
        -10.7513822090185
      ],
      [
        "solv",
        -10.751891319490749
      ],
      [
        "charl",
        -10.752063233648716
      ],
      [
        "construct",
        -10.752325841725186
      ],
      [
        "versu",
        -10.752418572511079
      ],
      [
        "row",
        -10.753514344213395
      ],
      [
        "collateral",
        -10.760044866529492
      ],
      [
        "select",
        -10.762078857949616
      ],
      [
        "vest",
        -10.762171016978215
      ],
      [
        "character",
        -10.762276757963512
      ],
      [
        "audience",
        -10.76235731357748
      ],
      [
        "decrease",
        -10.762358833672977
      ],
      [
        "float",
        -10.762359561466674
      ],
      [
        "pivot",
        -10.762376844224992
      ],
      [
        "enlargement",
        -10.762492579938472
      ],
      [
        "jump",
        -10.76251076943019
      ],
      [
        "serv",
        -10.76261637473316
      ],
      [
        "feasib",
        -10.763564075153342
      ],
      [
        "substitute",
        -10.764318809934593
      ],
      [
        "fisher",
        -10.764400275798126
      ],
      [
        "coherent",
        -10.765123333910442
      ],
      [
        "shale",
        -10.767597430428886
      ],
      [
        "comfort",
        -10.768192644498765
      ],
      [
        "complexit",
        -10.768329992848969
      ],
      [
        "connect",
        -10.768588062228673
      ],
      [
        "broaden",
        -10.768686778229647
      ],
      [
        "justifie",
        -10.76981355359734
      ],
      [
        "committ",
        -10.77011733215095
      ],
      [
        "charit",
        -10.771470334266425
      ],
      [
        "confident",
        -10.773330496551557
      ],
      [
        "surve",
        -10.773972801010656
      ],
      [
        "harsh",
        -10.774083617782642
      ],
      [
        "sex",
        -10.77424287236882
      ],
      [
        "uphold",
        -10.775437439681074
      ],
      [
        "calculation",
        -10.775925358464761
      ],
      [
        "‘",
        -10.776441783536399
      ],
      [
        "frustration",
        -10.776441788166455
      ],
      [
        "trajector",
        -10.7764417892718
      ],
      [
        "minute",
        -10.776442905225688
      ],
      [
        "extensive",
        -10.776469828044537
      ],
      [
        "observe",
        -10.776482329954696
      ],
      [
        "charter",
        -10.776495864193599
      ],
      [
        "fault",
        -10.776543264185584
      ],
      [
        "fraction",
        -10.776608877407556
      ],
      [
        "forge",
        -10.776858738691207
      ],
      [
        "constructive",
        -10.777092438972517
      ],
      [
        "án",
        -10.778493512788797
      ],
      [
        "jo",
        -10.77861798117791
      ],
      [
        "beneficia",
        -10.778987971417553
      ],
      [
        "anke",
        -10.779504081608703
      ],
      [
        "distance",
        -10.779940177904686
      ],
      [
        "repeat",
        -10.780102380816441
      ],
      [
        "ethiopia",
        -10.78356676692067
      ],
      [
        "issu",
        -10.783577755311711
      ],
      [
        "launche",
        -10.785262162762823
      ],
      [
        "judicia",
        -10.78626099025075
      ],
      [
        "sum",
        -10.787526003442554
      ],
      [
        "cohesi",
        -10.790570599323546
      ],
      [
        "qaddafi",
        -10.790727507130734
      ],
      [
        "ultra",
        -10.79072784212811
      ],
      [
        "definition",
        -10.790732035693633
      ],
      [
        "fertil",
        -10.790732741102802
      ],
      [
        "terribl",
        -10.790744241528639
      ],
      [
        "precedent",
        -10.790768301723253
      ],
      [
        "denominate",
        -10.790785843092685
      ],
      [
        "premature",
        -10.790795257413942
      ],
      [
        "optimistic",
        -10.790799223445081
      ],
      [
        "smooth",
        -10.791170168394432
      ],
      [
        "device",
        -10.79145119332906
      ],
      [
        "differ",
        -10.791522862451409
      ],
      [
        "hazard",
        -10.792508113795197
      ],
      [
        "presum",
        -10.792938925132482
      ],
      [
        "color",
        -10.792964637977786
      ],
      [
        "suspend",
        -10.792991597120317
      ],
      [
        "accuse",
        -10.794799133491765
      ],
      [
        "station",
        -10.796383961118629
      ],
      [
        "jiang",
        -10.796564213838657
      ],
      [
        "evolutionar",
        -10.798036436522494
      ],
      [
        "handle",
        -10.798601856592601
      ],
      [
        "pakistani",
        -10.801696291637345
      ],
      [
        "evil",
        -10.801852070228067
      ],
      [
        "writer",
        -10.802921757969054
      ],
      [
        "dav",
        -10.80314602777894
      ],
      [
        "panic",
        -10.803180385666993
      ],
      [
        "orrow",
        -10.804526546754776
      ],
      [
        "lihood",
        -10.805109115493007
      ],
      [
        "categor",
        -10.805158727249484
      ],
      [
        "equilibri",
        -10.805220251445299
      ],
      [
        "spectacular",
        -10.805220251552704
      ],
      [
        "tragic",
        -10.805220262917622
      ],
      [
        "collaboration",
        -10.805237573300243
      ],
      [
        "senator",
        -10.805240714407706
      ],
      [
        "finish",
        -10.805311418330632
      ],
      [
        "pipeline",
        -10.805352313008356
      ],
      [
        "pride",
        -10.805944887757082
      ],
      [
        "jer",
        -10.806386221131083
      ],
      [
        "interaction",
        -10.80639118383425
      ],
      [
        "itting",
        -10.8094456373791
      ],
      [
        "homes",
        -10.813063865679883
      ],
      [
        "bureaucrati",
        -10.815395875418535
      ],
      [
        "bias",
        -10.816028283499321
      ],
      [
        "profession",
        -10.816790723447014
      ],
      [
        "propos",
        -10.817373697572062
      ],
      [
        "favorabl",
        -10.818549703013897
      ],
      [
        "reference",
        -10.819194589069841
      ],
      [
        "pragmatic",
        -10.819926146074234
      ],
      [
        "fellow",
        -10.819985482385725
      ],
      [
        "confine",
        -10.820795891365394
      ],
      [
        "adaptation",
        -10.820954983290724
      ],
      [
        "handed",
        -10.821036159455943
      ],
      [
        "illusion",
        -10.822193802512075
      ],
      [
        "disagreement",
        -10.822375966358162
      ],
      [
        "weigh",
        -10.822690988009313
      ],
      [
        "humanit",
        -10.822990266075715
      ],
      [
        "trader",
        -10.8243286684969
      ],
      [
        "books",
        -10.825848641878153
      ],
      [
        "revise",
        -10.827690628619646
      ],
      [
        "coordinat",
        -10.828015934448677
      ],
      [
        "manufacturer",
        -10.828294373921832
      ],
      [
        "exclude",
        -10.829078002361673
      ],
      [
        "digit",
        -10.82958734518272
      ],
      [
        "courts",
        -10.83012296448982
      ],
      [
        "colonial",
        -10.831487894913142
      ],
      [
        "pop",
        -10.832962003355876
      ],
      [
        "oppos",
        -10.834583755460867
      ],
      [
        "jurisdiction",
        -10.834851506938893
      ],
      [
        "disproportionate",
        -10.834876676693995
      ],
      [
        "polish",
        -10.834907353055044
      ],
      [
        "attain",
        -10.834982364541784
      ],
      [
        "systematic",
        -10.835094695538311
      ],
      [
        "rejection",
        -10.835196300660247
      ],
      [
        "dismiss",
        -10.835533105059726
      ],
      [
        "inherit",
        -10.835560914674826
      ],
      [
        "writing",
        -10.835850636067875
      ],
      [
        "upward",
        -10.836239800973697
      ],
      [
        "illness",
        -10.83657013733998
      ],
      [
        "fortune",
        -10.836766707566564
      ],
      [
        "display",
        -10.836793886764703
      ],
      [
        "clinical",
        -10.837614900519076
      ],
      [
        "triple",
        -10.840569733032979
      ],
      [
        "stemm",
        -10.840986824685903
      ],
      [
        "port",
        -10.842343385812478
      ],
      [
        "algeria",
        -10.84289812309342
      ],
      [
        "absent",
        -10.843835943489816
      ],
      [
        "preferr",
        -10.844264848783752
      ],
      [
        "cease",
        -10.844302224342563
      ],
      [
        "integrat",
        -10.84470724180363
      ],
      [
        "screening",
        -10.845752158017653
      ],
      [
        "mega",
        -10.84678377089919
      ],
      [
        "ture",
        -10.848589868865677
      ],
      [
        "extremis",
        -10.849674683314031
      ],
      [
        "repay",
        -10.849877311350745
      ],
      [
        "grasp",
        -10.850003466145711
      ],
      [
        "motive",
        -10.850005055822967
      ],
      [
        "derive",
        -10.850008770022264
      ],
      [
        "embark",
        -10.850012212258546
      ],
      [
        "interconnected",
        -10.850139577324903
      ],
      [
        "livelihood",
        -10.850188596653922
      ],
      [
        "distant",
        -10.850391263949483
      ],
      [
        "recommendation",
        -10.850506703781017
      ],
      [
        "facilitat",
        -10.852406184621817
      ],
      [
        "hir",
        -10.852510720359167
      ],
      [
        "conservation",
        -10.85266018918239
      ],
      [
        "gather",
        -10.853325457542827
      ],
      [
        "page",
        -10.853605075850808
      ],
      [
        "frank",
        -10.853797773205244
      ],
      [
        "indirect",
        -10.854880447950245
      ],
      [
        "steadi",
        -10.854998398162092
      ],
      [
        "shed",
        -10.856330886814712
      ],
      [
        "ilit",
        -10.85769127667668
      ],
      [
        "underestimate",
        -10.85775393586929
      ],
      [
        "roma",
        -10.857925752192607
      ],
      [
        "hman",
        -10.858156852226552
      ],
      [
        "outflow",
        -10.85818631885849
      ],
      [
        "–&",
        -10.858359795517828
      ],
      [
        "loose",
        -10.85837430096613
      ],
      [
        "violate",
        -10.858559928294607
      ],
      [
        "smok",
        -10.859587249107822
      ],
      [
        "plac",
        -10.86013855612179
      ],
      [
        "ethic",
        -10.860792723120106
      ],
      [
        "analog",
        -10.860872760604206
      ],
      [
        "load",
        -10.862875236719205
      ],
      [
        "infect",
        -10.863384429475069
      ],
      [
        "fata",
        -10.864418070894533
      ],
      [
        "suspicion",
        -10.865387640012202
      ],
      [
        "franç",
        -10.865387709314094
      ],
      [
        "concession",
        -10.865387829722696
      ],
      [
        "cliff",
        -10.865388078441786
      ],
      [
        "club",
        -10.86538871282717
      ],
      [
        "basket",
        -10.865392303947406
      ],
      [
        "concentration",
        -10.865417662414515
      ],
      [
        "backlash",
        -10.865451633200845
      ],
      [
        "anemi",
        -10.865499594205986
      ],
      [
        "doom",
        -10.865502843906468
      ],
      [
        "proud",
        -10.865565386295582
      ],
      [
        "somali",
        -10.865594306435518
      ],
      [
        "input",
        -10.865783968680333
      ],
      [
        "distortion",
        -10.86580272346976
      ],
      [
        "plunge",
        -10.865998553197382
      ],
      [
        "avert",
        -10.866070892702172
      ],
      [
        "innocent",
        -10.866248840603365
      ],
      [
        "chess",
        -10.866678076411912
      ],
      [
        "rebel",
        -10.866689034175
      ],
      [
        "arguabl",
        -10.868598063762015
      ],
      [
        "utter",
        -10.869465035157472
      ],
      [
        "heighten",
        -10.86974659430827
      ],
      [
        "pruden",
        -10.87014540374156
      ],
      [
        "bret",
        -10.87400007871666
      ],
      [
        "belt",
        -10.87763917191552
      ],
      [
        "irrelevan",
        -10.878565776920603
      ],
      [
        "shot",
        -10.879870731492614
      ],
      [
        "peru",
        -10.880015562875663
      ],
      [
        "millennium",
        -10.881012637485878
      ],
      [
        "plastic",
        -10.881016064991403
      ],
      [
        "accumulation",
        -10.881063088272295
      ],
      [
        "valley",
        -10.88109219357812
      ],
      [
        "assertive",
        -10.881152075257901
      ],
      [
        "indication",
        -10.88118384305817
      ],
      [
        "plus",
        -10.881347362628127
      ],
      [
        "reag",
        -10.88145359981635
      ],
      [
        "militant",
        -10.882139952885003
      ],
      [
        "resistan",
        -10.882795384040847
      ],
      [
        "guideline",
        -10.883549368791556
      ],
      [
        "plausibl",
        -10.883849527545806
      ],
      [
        "discourage",
        -10.884970848985649
      ],
      [
        "judiciar",
        -10.885925244920452
      ],
      [
        "heads",
        -10.886602816478703
      ],
      [
        "optimis",
        -10.887476990902705
      ],
      [
        "emotional",
        -10.888059257115316
      ],
      [
        "subsidi",
        -10.889742372519667
      ],
      [
        "graduate",
        -10.890594262226951
      ],
      [
        "moon",
        -10.890594507975127
      ],
      [
        "male",
        -10.890619100684184
      ],
      [
        "consolidate",
        -10.891128854920648
      ],
      [
        "adhere",
        -10.892173295237086
      ],
      [
        "zed",
        -10.893530231776957
      ],
      [
        "cite",
        -10.895937406702332
      ],
      [
        "%)",
        -10.896264212931968
      ],
      [
        "object",
        -10.896677623272529
      ],
      [
        "boundar",
        -10.896714283501877
      ],
      [
        "novel",
        -10.896864774415558
      ],
      [
        "cabinet",
        -10.896885681132876
      ],
      [
        "vienn",
        -10.896888607836464
      ],
      [
        "irrational",
        -10.896974386979009
      ],
      [
        "harmful",
        -10.897109167218847
      ],
      [
        "stein",
        -10.897135906284975
      ],
      [
        "controlle",
        -10.898151955035399
      ],
      [
        "revival",
        -10.898226489882532
      ],
      [
        "ón",
        -10.89832481541135
      ],
      [
        "consent",
        -10.899755054536808
      ],
      [
        "nicola",
        -10.900276849189357
      ],
      [
        "sanit",
        -10.90084862166732
      ],
      [
        "shortcoming",
        -10.901434796062835
      ],
      [
        "officer",
        -10.903269928966306
      ],
      [
        "angr",
        -10.903348585525444
      ],
      [
        "habit",
        -10.90418820931544
      ],
      [
        "gor",
        -10.904545562170396
      ],
      [
        "unnecessar",
        -10.90555698084016
      ],
      [
        "touris",
        -10.905999532947899
      ],
      [
        "balkan",
        -10.907060917440155
      ],
      [
        "genes",
        -10.907771772890907
      ],
      [
        "rein",
        -10.910758022801753
      ],
      [
        "abbas",
        -10.912916047067846
      ],
      [
        "horizon",
        -10.912947348992297
      ],
      [
        "pocket",
        -10.913014686172248
      ],
      [
        "supplement",
        -10.913014694953898
      ],
      [
        "impression",
        -10.913014701430633
      ],
      [
        "football",
        -10.913019553150221
      ],
      [
        "pump",
        -10.913037407473801
      ],
      [
        "drink",
        -10.913113977765047
      ],
      [
        "consist",
        -10.913177091722343
      ],
      [
        "polio",
        -10.913286169048636
      ],
      [
        "resentment",
        -10.913306622302851
[...]
